const unsigned char model[] = {
  0x1c, 0x00, 0x00, 0x00, 0x54, 0x46, 0x4c, 0x33, 0x00, 0x00, 0x12, 0x00,
  0x1c, 0x00, 0x04, 0x00, 0x08, 0x00, 0x0c, 0x00, 0x10, 0x00, 0x14, 0x00,
  0x00, 0x00, 0x18, 0x00, 0x12, 0x00, 0x00, 0x00, 0x03, 0x00, 0x00, 0x00,
  0xa8, 0x24, 0x00, 0x00, 0xb4, 0x1c, 0x00, 0x00, 0x9c, 0x1c, 0x00, 0x00,
  0x3c, 0x00, 0x00, 0x00, 0x04, 0x00, 0x00, 0x00, 0x01, 0x00, 0x00, 0x00,
  0x0c, 0x00, 0x00, 0x00, 0x08, 0x00, 0x0c, 0x00, 0x04, 0x00, 0x08, 0x00,
  0x08, 0x00, 0x00, 0x00, 0x08, 0x00, 0x00, 0x00, 0x0c, 0x00, 0x00, 0x00,
  0x13, 0x00, 0x00, 0x00, 0x6d, 0x69, 0x6e, 0x5f, 0x72, 0x75, 0x6e, 0x74,
  0x69, 0x6d, 0x65, 0x5f, 0x76, 0x65, 0x72, 0x73, 0x69, 0x6f, 0x6e, 0x00,
  0x0d, 0x00, 0x00, 0x00, 0x54, 0x1c, 0x00, 0x00, 0x34, 0x1c, 0x00, 0x00,
  0xe8, 0x1b, 0x00, 0x00, 0x9c, 0x1b, 0x00, 0x00, 0x9c, 0x18, 0x00, 0x00,
  0xc4, 0x17, 0x00, 0x00, 0x44, 0x00, 0x00, 0x00, 0x3c, 0x00, 0x00, 0x00,
  0x34, 0x00, 0x00, 0x00, 0x2c, 0x00, 0x00, 0x00, 0x24, 0x00, 0x00, 0x00,
  0x1c, 0x00, 0x00, 0x00, 0x04, 0x00, 0x00, 0x00, 0x46, 0xe3, 0xff, 0xff,
  0x04, 0x00, 0x00, 0x00, 0x05, 0x00, 0x00, 0x00, 0x31, 0x2e, 0x35, 0x2e,
  0x30, 0x00, 0x00, 0x00, 0x28, 0xe3, 0xff, 0xff, 0x2c, 0xe3, 0xff, 0xff,
  0x30, 0xe3, 0xff, 0xff, 0x34, 0xe3, 0xff, 0xff, 0x38, 0xe3, 0xff, 0xff,
  0x6e, 0xe3, 0xff, 0xff, 0x04, 0x00, 0x00, 0x00, 0x70, 0x17, 0x00, 0x00,
  0xd8, 0x0e, 0x66, 0xf5, 0xf3, 0xed, 0xb6, 0x1b, 0x42, 0xf1, 0x13, 0xeb,
  0xed, 0x02, 0x2f, 0xdc, 0x37, 0xd8, 0x1d, 0xd7, 0xfa, 0x25, 0x06, 0xf8,
  0xd0, 0x13, 0xd8, 0x12, 0x1b, 0xd1, 0xe4, 0xb3, 0xbe, 0x17, 0x0a, 0x0c,
  0xfd, 0xe7, 0xd0, 0xe6, 0x01, 0xfa, 0xe3, 0xf0, 0xf0, 0x1c, 0x1f, 0xfd,
  0xfc, 0xe1, 0xfd, 0x39, 0xf8, 0xf8, 0x44, 0x06, 0xd7, 0xfa, 0xd4, 0x04,
  0x42, 0xeb, 0xfb, 0x25, 0xea, 0xfd, 0x0a, 0xfa, 0xd7, 0xf9, 0x01, 0x00,
  0x33, 0x0c, 0x14, 0xc9, 0xff, 0xf1, 0x47, 0x38, 0xfb, 0xc7, 0xf1, 0xdc,
  0x0b, 0xe4, 0xea, 0x04, 0x27, 0xf2, 0x26, 0x19, 0x06, 0x2c, 0xdd, 0x26,
  0xe1, 0xee, 0x1b, 0xc9, 0x27, 0x16, 0x2e, 0x19, 0xdf, 0xeb, 0xf5, 0xfd,
  0x2d, 0xf6, 0xde, 0xfb, 0x01, 0xff, 0x19, 0x0f, 0x04, 0x20, 0x0a, 0x01,
  0x06, 0x1a, 0x03, 0x36, 0xff, 0x41, 0xbc, 0xb0, 0x0d, 0x13, 0x0e, 0x21,
  0xac, 0x04, 0x31, 0x1f, 0x2e, 0x1d, 0xcf, 0x18, 0x00, 0xff, 0x48, 0x4d,
  0x26, 0x44, 0xc8, 0xfd, 0xd9, 0x06, 0x23, 0x2c, 0xed, 0x39, 0x15, 0xf0,
  0xe2, 0x29, 0x15, 0xc6, 0xf3, 0xfb, 0xcf, 0x1b, 0xf5, 0x17, 0x0f, 0x04,
  0xfe, 0x25, 0xe0, 0xe9, 0x08, 0x14, 0x02, 0x35, 0xd2, 0x00, 0xe8, 0xd0,
  0x1b, 0x11, 0x02, 0xfe, 0x23, 0xd7, 0xf0, 0x44, 0xcc, 0xd6, 0xf7, 0x0d,
  0x07, 0x2f, 0xcc, 0xc4, 0xe3, 0xff, 0x2a, 0xf7, 0x4b, 0xfc, 0xea, 0xf8,
  0xf5, 0xca, 0xfa, 0x29, 0xce, 0xcc, 0x0b, 0x18, 0x12, 0x30, 0xda, 0xeb,
  0xfe, 0xfa, 0x0e, 0x23, 0xd5, 0xda, 0x32, 0x22, 0x34, 0x0d, 0xdd, 0x32,
  0x23, 0x40, 0xf5, 0xc5, 0xf3, 0x0c, 0xea, 0x0c, 0x23, 0x14, 0xd1, 0x06,
  0x32, 0x14, 0x09, 0x02, 0x12, 0xf6, 0x2b, 0xcf, 0x21, 0xdb, 0x34, 0x03,
  0xde, 0x1f, 0x06, 0xe7, 0x3b, 0xf7, 0xed, 0x09, 0xb4, 0xe0, 0xde, 0x14,
  0xfc, 0xf1, 0x1e, 0x34, 0xe4, 0xfe, 0x10, 0x1d, 0x15, 0x03, 0xe8, 0xe0,
  0x2b, 0xd9, 0xfd, 0x03, 0xea, 0x22, 0x27, 0xe3, 0x24, 0xfc, 0xee, 0xdd,
  0xdf, 0xc6, 0x00, 0x20, 0x11, 0xdd, 0xdd, 0x26, 0x38, 0xf9, 0xeb, 0xf3,
  0xf4, 0x07, 0xcd, 0xf4, 0xf9, 0x1c, 0xd8, 0x37, 0x0f, 0x30, 0x03, 0x50,
  0x08, 0xf3, 0x24, 0xfe, 0x0d, 0x24, 0x1b, 0xeb, 0x2a, 0xc3, 0xd1, 0xf8,
  0xe9, 0xd8, 0xeb, 0xc0, 0x13, 0x01, 0x0d, 0x0c, 0xce, 0x2d, 0xf1, 0x3e,
  0xd5, 0xe6, 0xed, 0x2f, 0xfd, 0x2f, 0x1d, 0xff, 0x06, 0x2a, 0x01, 0x06,
  0xef, 0x27, 0x42, 0x1a, 0xee, 0xfa, 0x16, 0x02, 0x1c, 0xfa, 0xca, 0x11,
  0xfd, 0x2f, 0xf9, 0xfb, 0xdb, 0x09, 0xd3, 0x13, 0xf5, 0x20, 0x20, 0xd6,
  0xd5, 0xed, 0x25, 0x05, 0xb9, 0xf8, 0xd4, 0xed, 0x0f, 0xfe, 0x0f, 0xee,
  0xfa, 0x16, 0x08, 0x09, 0xf0, 0x0a, 0x28, 0x02, 0x4f, 0xf5, 0x1d, 0xf5,
  0xd3, 0xdd, 0x3f, 0xe8, 0x41, 0xf8, 0xdc, 0xc8, 0x39, 0x1c, 0x32, 0x04,
  0xe5, 0xe9, 0x24, 0x39, 0x4b, 0x38, 0xec, 0xc9, 0x00, 0xf6, 0x1c, 0x23,
  0xee, 0xd5, 0x0b, 0x08, 0xeb, 0xd9, 0x1d, 0x1d, 0x27, 0x0c, 0x15, 0x15,
  0xbf, 0xdd, 0x0e, 0xfd, 0xeb, 0xe5, 0xf3, 0x0d, 0x03, 0x10, 0x41, 0xf1,
  0xfc, 0xf5, 0x19, 0x1b, 0xff, 0x2e, 0xf7, 0xee, 0xfa, 0x12, 0x29, 0x2a,
  0x0d, 0x15, 0xdc, 0x31, 0xfa, 0x1b, 0xd8, 0xfe, 0xed, 0x2f, 0x37, 0x2b,
  0x14, 0x0e, 0x08, 0x10, 0x00, 0x06, 0xe2, 0xee, 0x17, 0xcd, 0xf9, 0xf7,
  0x13, 0x24, 0xbb, 0x1f, 0xfe, 0x32, 0x10, 0x3f, 0x07, 0xf4, 0x16, 0x18,
  0x2f, 0x17, 0x07, 0x2c, 0x1d, 0x1d, 0xfb, 0x30, 0xff, 0x39, 0x37, 0xc6,
  0x03, 0x0a, 0xd8, 0x36, 0x26, 0x0b, 0xf7, 0x11, 0x24, 0x03, 0xe4, 0xf2,
  0x13, 0xc8, 0x0d, 0x09, 0xda, 0x21, 0x46, 0x0f, 0xd0, 0x07, 0x01, 0x03,
  0xef, 0xfb, 0xf2, 0xf4, 0x12, 0xd2, 0x26, 0x31, 0xcf, 0x33, 0x27, 0x33,
  0xce, 0xdd, 0x24, 0xdc, 0x28, 0x18, 0xdb, 0xf7, 0xcf, 0x3d, 0x1f, 0x23,
  0x39, 0xd7, 0xe0, 0x15, 0xd9, 0xe2, 0x18, 0xe2, 0xd6, 0x22, 0xee, 0x25,
  0x0b, 0xbd, 0xe4, 0xf4, 0x39, 0x11, 0x1c, 0xc5, 0x19, 0xde, 0x03, 0xe8,
  0x0f, 0xfa, 0xf9, 0xee, 0xc3, 0xe3, 0xe7, 0xd7, 0xd2, 0xcb, 0x34, 0xe1,
  0xfc, 0x24, 0xf7, 0xf4, 0xd5, 0x2b, 0x39, 0x16, 0xfb, 0xf8, 0xf0, 0xe8,
  0xf1, 0x90, 0x1f, 0xc6, 0xeb, 0xfb, 0xc3, 0xfd, 0x38, 0x04, 0xe1, 0x02,
  0xa1, 0xf3, 0x56, 0xc7, 0x39, 0x0a, 0x9e, 0x20, 0x22, 0x3b, 0xf0, 0x22,
  0xe1, 0x56, 0x22, 0x13, 0x2c, 0xd6, 0xb8, 0x54, 0x04, 0x06, 0xe1, 0x10,
  0x08, 0x2f, 0xe9, 0xf6, 0xef, 0xea, 0xf0, 0x3b, 0x00, 0xf7, 0x0b, 0xe6,
  0xfa, 0x1c, 0x33, 0xfd, 0xf6, 0xf0, 0x10, 0x50, 0x24, 0xff, 0x03, 0xe7,
  0xf9, 0x4b, 0xf9, 0x28, 0x18, 0xcd, 0x1b, 0x17, 0x39, 0x25, 0x16, 0xcf,
  0xf7, 0x19, 0x12, 0x02, 0xef, 0xc4, 0xf3, 0x33, 0xe4, 0x1d, 0xf1, 0xdd,
  0x23, 0x08, 0xfe, 0xe4, 0xd2, 0xc4, 0x0a, 0xdc, 0x04, 0xf6, 0x3f, 0xf8,
  0xc0, 0xe5, 0x1b, 0xf3, 0x24, 0xdd, 0xe8, 0x05, 0xee, 0x3c, 0x28, 0x22,
  0x21, 0x43, 0x35, 0xd9, 0xe0, 0xf9, 0xe5, 0x29, 0xc7, 0xde, 0xfd, 0xc9,
  0xef, 0x1a, 0x46, 0xc0, 0x17, 0xca, 0xdf, 0xdd, 0xfb, 0xf6, 0xd6, 0xe1,
  0x0e, 0x14, 0xfe, 0xed, 0x0b, 0x09, 0xcf, 0xbd, 0xda, 0xba, 0x19, 0xe7,
  0xd0, 0xc9, 0xcc, 0x0f, 0x07, 0xf4, 0xf8, 0xee, 0x1d, 0xb9, 0x1c, 0xdf,
  0x1f, 0xcb, 0x21, 0xf7, 0xca, 0x05, 0xfe, 0xe1, 0xee, 0xdf, 0xf8, 0xfe,
  0xe3, 0xb2, 0x16, 0x35, 0xd9, 0x10, 0xfd, 0xc2, 0x0c, 0xd5, 0xf1, 0xd9,
  0xff, 0xdf, 0xde, 0xcf, 0xd7, 0x39, 0xf9, 0x37, 0x09, 0x24, 0x27, 0x1a,
  0xcf, 0xd6, 0xd6, 0x11, 0x04, 0x00, 0xe2, 0xe8, 0x16, 0x22, 0xe7, 0x2b,
  0xf2, 0x34, 0x22, 0xdf, 0x28, 0xe0, 0x0c, 0xdc, 0xf1, 0xcf, 0xbc, 0x18,
  0xff, 0xec, 0x20, 0x2e, 0x22, 0x18, 0xf5, 0x2d, 0x1d, 0x2d, 0xec, 0xff,
  0xf5, 0x07, 0x35, 0x0c, 0xef, 0x03, 0xfa, 0xf3, 0x5b, 0x13, 0x2a, 0xe4,
  0xf5, 0x3e, 0x11, 0xe4, 0x34, 0x1c, 0xdf, 0xf7, 0xfb, 0x17, 0x0e, 0x21,
  0x02, 0x1d, 0x2f, 0xef, 0x2b, 0x43, 0xfd, 0x16, 0x21, 0x04, 0x47, 0x07,
  0xfd, 0xcc, 0xae, 0xde, 0x15, 0xe8, 0x0a, 0xff, 0xd6, 0xd1, 0x18, 0xf5,
  0xd8, 0x44, 0xd4, 0x04, 0x00, 0xf2, 0xfd, 0x1f, 0xbf, 0xdb, 0x20, 0x34,
  0xe9, 0xf6, 0xf8, 0xfa, 0x18, 0xc3, 0x2b, 0xcf, 0xe9, 0xdf, 0x15, 0xfe,
  0xd5, 0x2f, 0x26, 0xe5, 0xcb, 0xe8, 0x1e, 0x3d, 0x01, 0x08, 0x1c, 0xe6,
  0x48, 0xe8, 0xd2, 0xc2, 0xdd, 0x07, 0x33, 0xe9, 0xf8, 0x25, 0x02, 0x21,
  0xf7, 0x08, 0xde, 0xf0, 0xe9, 0x15, 0x39, 0xd1, 0xea, 0x23, 0xdd, 0xfc,
  0xe2, 0xc7, 0x35, 0x12, 0xd4, 0xc0, 0x43, 0x1b, 0xe8, 0x28, 0xe8, 0xe8,
  0x13, 0x0a, 0xed, 0x12, 0xf3, 0xf2, 0x1e, 0x00, 0x0b, 0xcd, 0xbc, 0xfb,
  0x1d, 0x17, 0x3b, 0xef, 0x1a, 0xe9, 0x33, 0xee, 0x35, 0xfd, 0xf3, 0xeb,
  0x28, 0x06, 0xf0, 0xc9, 0xf8, 0xcf, 0xe6, 0xf0, 0x2a, 0xed, 0xfa, 0xd8,
  0xf3, 0x8f, 0x2a, 0x3a, 0x2f, 0xf2, 0x25, 0xf6, 0xc8, 0x04, 0xf0, 0xfd,
  0xeb, 0xd3, 0x0c, 0x0c, 0x09, 0xf6, 0x06, 0xad, 0x37, 0x0c, 0xd5, 0x2b,
  0x37, 0xc3, 0x11, 0x07, 0xf1, 0xf7, 0xfa, 0xf0, 0x25, 0xd1, 0xcf, 0xfe,
  0xd3, 0xe6, 0x12, 0xfc, 0x07, 0xdf, 0x24, 0x08, 0x01, 0x0b, 0xcc, 0x1f,
  0xd3, 0xdf, 0x1f, 0xd5, 0x25, 0x43, 0x3b, 0x14, 0x33, 0xe6, 0x3a, 0x02,
  0x15, 0x10, 0x1f, 0x01, 0x07, 0x42, 0xf5, 0xec, 0xf4, 0xce, 0xf0, 0xd9,
  0xe8, 0xf5, 0x4e, 0xef, 0xfe, 0x29, 0xde, 0xe1, 0x14, 0x21, 0x04, 0x2a,
  0x06, 0xfe, 0x2d, 0xf8, 0xe0, 0xd2, 0xe8, 0x00, 0x02, 0xe6, 0x17, 0x04,
  0x35, 0x3f, 0xde, 0xff, 0x2d, 0xf8, 0xe3, 0xe2, 0xf5, 0x11, 0x20, 0x25,
  0x19, 0xbf, 0x1a, 0xbf, 0x25, 0xea, 0xfe, 0xb8, 0xe8, 0x09, 0xf3, 0xdd,
  0xfd, 0xda, 0xf7, 0xd0, 0xd5, 0xd8, 0x13, 0xbb, 0x49, 0x29, 0xc3, 0x00,
  0x1c, 0xc2, 0x05, 0x18, 0xab, 0x14, 0xec, 0xd5, 0x3e, 0x3e, 0xff, 0xff,
  0x00, 0x12, 0x10, 0x00, 0xed, 0x3a, 0xe2, 0xd5, 0x1e, 0xf0, 0x1a, 0x36,
  0x04, 0xcb, 0x0b, 0xd5, 0xef, 0x2e, 0x20, 0x19, 0x03, 0x3b, 0x0e, 0x24,
  0x22, 0x13, 0x31, 0xf4, 0x1b, 0xca, 0xd3, 0x0b, 0x32, 0x03, 0xe4, 0x46,
  0xfd, 0xfd, 0x3e, 0x32, 0x0f, 0x26, 0x0e, 0x2d, 0xfe, 0x20, 0xc1, 0xed,
  0x30, 0x22, 0x33, 0x46, 0xb9, 0x12, 0x13, 0x03, 0x1b, 0xd3, 0xff, 0xf3,
  0xd5, 0xd5, 0x16, 0x10, 0x37, 0xd7, 0x29, 0x14, 0x6a, 0x30, 0xf7, 0xf0,
  0x1a, 0xf9, 0x42, 0x24, 0xeb, 0x0d, 0xfb, 0xd4, 0x0b, 0xce, 0x24, 0xee,
  0xe2, 0xdc, 0xf5, 0xed, 0x53, 0x0c, 0xab, 0x3d, 0x26, 0x0b, 0x11, 0x1e,
  0x1e, 0x22, 0xd8, 0x05, 0x21, 0x06, 0xc4, 0xfd, 0xf2, 0x28, 0xf5, 0x32,
  0x41, 0x13, 0x28, 0xf1, 0xc6, 0x47, 0x13, 0x23, 0x2b, 0xd8, 0xc6, 0xcb,
  0xf7, 0x07, 0xfe, 0xe4, 0x1d, 0x18, 0x12, 0x45, 0xe0, 0x1b, 0xe4, 0x26,
  0xe1, 0x17, 0xf1, 0x2d, 0x06, 0x3b, 0x30, 0xfa, 0xca, 0x29, 0xcf, 0x02,
  0xf5, 0x32, 0xf1, 0xf9, 0xd3, 0x0e, 0x17, 0x0c, 0x13, 0x3b, 0x12, 0x28,
  0xfb, 0x12, 0xcd, 0x16, 0x2e, 0xed, 0x29, 0x01, 0x04, 0xef, 0xf0, 0xfa,
  0x0d, 0x2e, 0xde, 0xf7, 0x21, 0x2f, 0x23, 0x15, 0x06, 0x00, 0x14, 0xea,
  0xe3, 0x13, 0xed, 0x15, 0xe3, 0xee, 0x3a, 0xf6, 0xe9, 0x0f, 0xdf, 0x1a,
  0xf4, 0x04, 0x0b, 0x1a, 0xf3, 0x26, 0xfd, 0x01, 0xf9, 0x1b, 0x08, 0x10,
  0xef, 0xf9, 0x0c, 0x05, 0x02, 0x2b, 0xf1, 0xe9, 0xe8, 0x18, 0x34, 0x0c,
  0x19, 0xf2, 0x1c, 0xf8, 0xf4, 0x39, 0x23, 0xf9, 0x0f, 0x08, 0x22, 0x1a,
  0xe7, 0x3e, 0x40, 0xdb, 0xeb, 0x07, 0x03, 0x12, 0x0d, 0x22, 0x29, 0x11,
  0xba, 0x09, 0xe3, 0xd3, 0x12, 0x1f, 0x37, 0x20, 0xfb, 0x1e, 0xdc, 0xdd,
  0x35, 0xde, 0x06, 0xfb, 0x0c, 0xfc, 0xe1, 0xf1, 0xfc, 0x08, 0x0a, 0x1f,
  0xeb, 0xf1, 0x17, 0xef, 0xf9, 0xf6, 0xb9, 0xee, 0x25, 0x0c, 0x2a, 0x00,
  0xe0, 0x02, 0x02, 0xfe, 0xc6, 0xbe, 0x04, 0x09, 0x16, 0x0e, 0x38, 0x13,
  0x0d, 0xe7, 0x1f, 0x11, 0x1c, 0x14, 0x13, 0xbd, 0xf4, 0x36, 0x2b, 0x3f,
  0xf9, 0xc3, 0xc8, 0x17, 0xfc, 0x1d, 0xfd, 0xcd, 0xdd, 0x18, 0xe7, 0x04,
  0x08, 0x11, 0xf2, 0xe6, 0x10, 0x25, 0x32, 0x14, 0xb9, 0xe4, 0x1d, 0x0d,
  0xf7, 0xe9, 0xf8, 0xec, 0xfd, 0xc9, 0xfb, 0x08, 0xff, 0x00, 0x12, 0xc4,
  0x33, 0xd8, 0xf7, 0xdf, 0x0c, 0xd9, 0x1c, 0xfb, 0xf4, 0x21, 0xe6, 0x36,
  0xd9, 0xf2, 0xe0, 0x26, 0x16, 0xe5, 0x07, 0xce, 0xf3, 0x18, 0xf0, 0x10,
  0xff, 0x09, 0xc7, 0xec, 0x09, 0x02, 0x0e, 0x04, 0xf0, 0x28, 0xe4, 0x01,
  0x1f, 0xed, 0x1a, 0xe1, 0x09, 0xcf, 0x0d, 0xfa, 0x2b, 0x34, 0xd3, 0x14,
  0xf1, 0xe0, 0xc8, 0xce, 0xe7, 0x0b, 0x18, 0x0e, 0xeb, 0x37, 0x43, 0x21,
  0x0f, 0xf2, 0x0a, 0xf6, 0xbe, 0xdf, 0xe2, 0x04, 0x10, 0x27, 0x2f, 0x02,
  0xc4, 0x0b, 0xdd, 0x0d, 0x0e, 0xfa, 0xfa, 0xfd, 0x1e, 0xd7, 0xdf, 0xe6,
  0x38, 0xf2, 0xbe, 0xd8, 0x03, 0xf4, 0xc9, 0x2f, 0x02, 0xee, 0x17, 0xee,
  0xf5, 0x52, 0x53, 0xc8, 0x10, 0xf2, 0xe9, 0x19, 0x13, 0xe8, 0x1a, 0xe2,
  0x15, 0xf7, 0x1d, 0xc4, 0xfe, 0x16, 0xc8, 0x03, 0xef, 0xee, 0x06, 0x04,
  0x29, 0xdf, 0x15, 0xed, 0xe9, 0xdd, 0x0c, 0xc7, 0x0d, 0x38, 0x15, 0x2b,
  0x07, 0x16, 0xf9, 0xf9, 0xe0, 0xca, 0xce, 0xe3, 0x1c, 0x42, 0xfc, 0x0d,
  0xcf, 0xd2, 0xd0, 0x2d, 0x0f, 0xfe, 0x39, 0xc4, 0xf4, 0x15, 0x19, 0x06,
  0xec, 0xd8, 0xf5, 0x1a, 0xf8, 0x0f, 0xcc, 0xf5, 0xdf, 0x45, 0x0c, 0x18,
  0xff, 0xf7, 0xfe, 0xdf, 0xf3, 0x18, 0x01, 0x25, 0xeb, 0xeb, 0xea, 0xdd,
  0xe2, 0x07, 0x40, 0xd0, 0xfd, 0xee, 0xc3, 0xfc, 0xd7, 0xf3, 0xde, 0xf5,
  0x00, 0x3c, 0xfd, 0x07, 0xea, 0x11, 0xf6, 0xe7, 0x3c, 0x08, 0x27, 0x2e,
  0x23, 0x21, 0xd8, 0xbf, 0x16, 0x00, 0xea, 0xe1, 0xfd, 0xf5, 0xf0, 0x1e,
  0x08, 0x91, 0x0d, 0xd0, 0x1c, 0x32, 0x26, 0xa8, 0x09, 0x37, 0x1e, 0x5a,
  0xc1, 0xff, 0xe4, 0x1e, 0xe2, 0x35, 0xc7, 0x11, 0xfa, 0x14, 0x44, 0x11,
  0xd1, 0x1f, 0x19, 0x0b, 0x28, 0x2f, 0xc5, 0x62, 0xcc, 0x16, 0xd7, 0x06,
  0xfb, 0x49, 0xfd, 0x08, 0xb1, 0xe3, 0xe1, 0x7f, 0xf6, 0xf7, 0x2a, 0x45,
  0xdf, 0x53, 0x43, 0xf0, 0xf2, 0xe9, 0xfc, 0x25, 0x2a, 0xe2, 0x14, 0xf4,
  0xdb, 0x0b, 0x22, 0x17, 0xe0, 0xb2, 0x11, 0x38, 0x26, 0x01, 0xd6, 0xe7,
  0xfc, 0x52, 0xe4, 0xe8, 0xd9, 0x06, 0x2e, 0x48, 0x19, 0xe6, 0x05, 0xce,
  0xff, 0x31, 0x30, 0x36, 0x09, 0x0c, 0x24, 0x02, 0x0d, 0xdc, 0x26, 0xbf,
  0x3a, 0x0c, 0x2f, 0x37, 0xb3, 0xf8, 0x2a, 0xe5, 0x0c, 0x12, 0x2f, 0xf8,
  0x28, 0x17, 0x54, 0x24, 0xeb, 0x01, 0x3a, 0xd8, 0x00, 0x13, 0xd2, 0x2d,
  0xa0, 0xe0, 0x33, 0x2d, 0x04, 0xf7, 0xd1, 0x2d, 0x13, 0xdc, 0x3d, 0x39,
  0xe1, 0xfe, 0x30, 0x22, 0x42, 0x0b, 0xc1, 0x09, 0x16, 0x1b, 0xf6, 0x2c,
  0x1f, 0x4d, 0x07, 0xe0, 0x1d, 0xf5, 0xec, 0x0e, 0xd6, 0x36, 0x13, 0xdc,
  0xff, 0x23, 0xdb, 0x15, 0xdc, 0x1a, 0x06, 0x65, 0xbb, 0xe3, 0x0c, 0x29,
  0x2e, 0x1f, 0x07, 0xba, 0x0f, 0x00, 0xea, 0x25, 0x2d, 0x2b, 0xc9, 0xe6,
  0x16, 0x2b, 0x13, 0x04, 0x0f, 0xbf, 0x39, 0xf5, 0x21, 0x37, 0x01, 0xda,
  0x1a, 0x35, 0xe3, 0xd1, 0x23, 0xf9, 0x0b, 0x3d, 0x07, 0x2e, 0x05, 0xee,
  0x55, 0x1b, 0xff, 0xee, 0xdd, 0xee, 0x30, 0xdd, 0x10, 0xe1, 0x24, 0x05,
  0x54, 0x06, 0x25, 0xf0, 0x10, 0x1b, 0x22, 0xc9, 0x37, 0x16, 0x20, 0x1e,
  0x1d, 0x03, 0x1e, 0x1b, 0xc6, 0xed, 0x3c, 0x13, 0x02, 0x24, 0xe0, 0x15,
  0xf5, 0x15, 0x29, 0xf9, 0x33, 0x1e, 0x11, 0xf9, 0x01, 0xfe, 0x0d, 0x03,
  0x07, 0x16, 0x10, 0xea, 0xee, 0x07, 0x18, 0x22, 0x01, 0x11, 0xd2, 0x32,
  0x1d, 0xdf, 0x01, 0x02, 0xe6, 0x03, 0xe4, 0xeb, 0xec, 0x02, 0xc8, 0xec,
  0xe7, 0xd7, 0xcd, 0xcc, 0xb9, 0x31, 0xe6, 0x19, 0xea, 0x00, 0x0d, 0x14,
  0x18, 0x20, 0xf5, 0x24, 0x1f, 0x36, 0x17, 0xb0, 0x2a, 0x00, 0xff, 0xfe,
  0xec, 0xf2, 0x07, 0xf9, 0x09, 0xe9, 0xff, 0xda, 0xea, 0xea, 0x19, 0xea,
  0xee, 0xc5, 0x3e, 0xec, 0x47, 0xf3, 0x15, 0xfe, 0xdb, 0xe5, 0xf1, 0xd2,
  0xf8, 0xbe, 0x2a, 0xeb, 0x3a, 0x36, 0x0e, 0xbd, 0x0d, 0x07, 0xcf, 0x09,
  0x03, 0xf5, 0x33, 0xf3, 0xf2, 0xf8, 0xd1, 0xf4, 0xfb, 0xf7, 0xe6, 0xe9,
  0x2f, 0xf0, 0x04, 0xfe, 0xea, 0x08, 0x21, 0x0e, 0xdc, 0xff, 0xff, 0x12,
  0xf9, 0xce, 0xdb, 0x20, 0x0f, 0xdd, 0xd8, 0xc6, 0xe4, 0x03, 0x08, 0xef,
  0x34, 0x0b, 0xca, 0x29, 0xcd, 0x07, 0x1e, 0xd7, 0x1b, 0x02, 0x01, 0xc3,
  0x0d, 0xf5, 0xf5, 0x08, 0xf9, 0xf8, 0x23, 0xd7, 0xf2, 0x28, 0xee, 0x12,
  0xec, 0x1b, 0x36, 0x15, 0x10, 0x02, 0xf7, 0xf5, 0xe2, 0x2d, 0x1b, 0xe9,
  0x19, 0xdf, 0xff, 0xed, 0xf3, 0x1e, 0xcf, 0xf9, 0xf5, 0x07, 0x28, 0x44,
  0x0b, 0x3a, 0xe7, 0xfa, 0xf7, 0x0f, 0xf6, 0xeb, 0x0d, 0x17, 0xde, 0x0e,
  0x1a, 0xff, 0x1a, 0x0c, 0x01, 0x28, 0xed, 0x42, 0x04, 0xfe, 0x22, 0xe7,
  0x17, 0x10, 0xcd, 0xba, 0xf1, 0xf8, 0xdb, 0x01, 0x06, 0x34, 0x3c, 0xbb,
  0x30, 0x08, 0x14, 0xe4, 0xfd, 0x33, 0xef, 0xc4, 0x13, 0xcb, 0xf9, 0xe4,
  0xff, 0x0c, 0x23, 0x0d, 0x12, 0x1a, 0xfe, 0x23, 0xfa, 0x25, 0x27, 0xf6,
  0xed, 0x2e, 0x28, 0xfc, 0xfd, 0xdd, 0x33, 0x1e, 0x54, 0xee, 0xf1, 0x16,
  0x27, 0x09, 0x15, 0x09, 0x38, 0x1c, 0xda, 0x1f, 0x0c, 0xbd, 0xe2, 0x29,
  0x0a, 0xe9, 0x34, 0x0f, 0x27, 0xd5, 0x12, 0xcb, 0xcd, 0x27, 0x1f, 0xd9,
  0xf8, 0x23, 0xdd, 0x0b, 0x04, 0x1a, 0xf4, 0xe0, 0x10, 0xfb, 0xca, 0xfe,
  0x11, 0x29, 0x16, 0xf9, 0x41, 0x05, 0xfb, 0x0c, 0xd0, 0xf6, 0xd4, 0x27,
  0x28, 0xdd, 0x2d, 0x22, 0x10, 0xcb, 0x0e, 0xfd, 0x11, 0x0d, 0x25, 0xe5,
  0xf8, 0x02, 0xe9, 0x09, 0xf2, 0x08, 0x1b, 0xdf, 0xe6, 0x03, 0xea, 0x2c,
  0x01, 0x2b, 0xf6, 0xbe, 0xeb, 0x33, 0x28, 0x09, 0xeb, 0x01, 0x09, 0x20,
  0xff, 0xe2, 0xcf, 0xce, 0xe6, 0xc6, 0x11, 0x0f, 0xd5, 0x13, 0xf9, 0x15,
  0xfa, 0x12, 0x48, 0x0d, 0x20, 0xf4, 0x14, 0xe2, 0xfc, 0x18, 0x27, 0xda,
  0xbb, 0xd3, 0x1a, 0xb7, 0xe6, 0x22, 0xb3, 0x05, 0xc6, 0xce, 0xea, 0x3e,
  0x99, 0x12, 0xe7, 0xd9, 0x32, 0x0b, 0xa9, 0x40, 0xe4, 0xf8, 0x03, 0x3d,
  0x15, 0x43, 0x37, 0xd3, 0x26, 0x04, 0xac, 0x06, 0x44, 0x32, 0x21, 0xd0,
  0x00, 0x2d, 0x2e, 0x02, 0x26, 0xd9, 0xdc, 0x40, 0x1a, 0xf2, 0x04, 0x20,
  0x19, 0x37, 0xe5, 0xe7, 0x12, 0x0f, 0xf3, 0x3e, 0xef, 0xe6, 0x06, 0x14,
  0x18, 0xf0, 0x35, 0x0f, 0x39, 0xf5, 0xf2, 0x33, 0x27, 0xe5, 0x04, 0xd3,
  0xf5, 0x09, 0x27, 0x1e, 0xf3, 0xc8, 0xfc, 0x19, 0x1b, 0x20, 0xeb, 0xe2,
  0xc1, 0x11, 0x19, 0xf5, 0x32, 0xd0, 0x05, 0x1e, 0x3d, 0xc7, 0xfa, 0xeb,
  0xf2, 0xcc, 0x16, 0xd4, 0x29, 0x18, 0xd9, 0x14, 0x23, 0xe6, 0x37, 0xc1,
  0xe5, 0x32, 0xf1, 0x0d, 0x09, 0xfe, 0x05, 0xf4, 0xe8, 0x02, 0xe9, 0xc8,
  0xc6, 0xcc, 0x0c, 0x04, 0xc0, 0x08, 0xcb, 0x0a, 0xe3, 0xea, 0xdf, 0x12,
  0xdd, 0x3a, 0xd2, 0x3e, 0x43, 0x52, 0x06, 0x3a, 0x1d, 0xf2, 0x00, 0x44,
  0xc9, 0x09, 0x08, 0x2e, 0xd0, 0x13, 0xcd, 0x52, 0x52, 0x00, 0x1c, 0x27,
  0xd8, 0x34, 0x21, 0xea, 0x1c, 0xd3, 0xd5, 0xf8, 0x11, 0xf7, 0xf2, 0xe6,
  0x1c, 0xfe, 0x18, 0x16, 0xed, 0xb1, 0xfe, 0xe0, 0x12, 0x2e, 0x40, 0xe8,
  0x0b, 0xe9, 0xef, 0x45, 0xfe, 0x25, 0x2a, 0x25, 0x2a, 0x24, 0xef, 0x04,
  0x05, 0x09, 0xfa, 0x1a, 0xdd, 0xd5, 0xbd, 0x1a, 0x11, 0xde, 0xd7, 0xb4,
  0xb9, 0xd9, 0x31, 0xfd, 0x1d, 0xac, 0x00, 0x11, 0xf5, 0x20, 0x0e, 0xee,
  0x0d, 0xf0, 0xf4, 0x1c, 0x13, 0x06, 0x19, 0x2f, 0x2c, 0xf5, 0x4a, 0x2d,
  0x0e, 0x3b, 0xe1, 0x08, 0x1a, 0xea, 0x18, 0x2c, 0xe5, 0x00, 0xe6, 0xf0,
  0x0d, 0xcc, 0x00, 0xdb, 0xf9, 0x2f, 0x20, 0xf5, 0xdc, 0x11, 0x10, 0xf3,
  0x34, 0x2d, 0x24, 0xc4, 0x20, 0x1a, 0xfc, 0xd6, 0x00, 0x02, 0xf1, 0xf1,
  0xfd, 0xf7, 0xda, 0xf8, 0xde, 0xd5, 0xe9, 0xdb, 0x14, 0x18, 0xeb, 0x24,
  0x2b, 0x01, 0x1f, 0xc0, 0xf1, 0x0b, 0xf3, 0xf1, 0xed, 0x16, 0x08, 0xf4,
  0xce, 0x31, 0x19, 0x21, 0x23, 0x0b, 0xe9, 0xcc, 0xe3, 0xd6, 0x04, 0x12,
  0xee, 0x0b, 0x02, 0x1e, 0x30, 0x26, 0x0c, 0x2f, 0xcc, 0x19, 0xe5, 0x01,
  0xf9, 0x27, 0x23, 0xfb, 0x1d, 0x0d, 0x1f, 0x43, 0xcc, 0x37, 0x0c, 0x16,
  0x14, 0x1e, 0xe5, 0xde, 0x1e, 0x07, 0x02, 0xf6, 0x02, 0x1f, 0x42, 0xf0,
  0xdb, 0xe3, 0xbd, 0x14, 0xfa, 0xe4, 0x0d, 0xec, 0x0d, 0xdb, 0xef, 0xc5,
  0x22, 0x0a, 0xfe, 0xf2, 0xfb, 0xcf, 0x27, 0x0d, 0xc3, 0x06, 0x1c, 0xf3,
  0x06, 0x1c, 0x2b, 0x03, 0xf8, 0x08, 0x27, 0xe5, 0xf3, 0x45, 0xe9, 0x37,
  0xdd, 0xdf, 0x1a, 0xf0, 0xdf, 0x27, 0xd6, 0x43, 0xda, 0x48, 0xf0, 0xf6,
  0xdf, 0xfb, 0x30, 0x21, 0x06, 0xea, 0x28, 0x2f, 0x10, 0xf4, 0xdc, 0x06,
  0xfe, 0x3e, 0x22, 0x0d, 0xf5, 0xd7, 0xe2, 0x57, 0x28, 0x02, 0x14, 0x17,
  0xec, 0x46, 0xe3, 0x3b, 0xe0, 0xf0, 0x04, 0xd4, 0x42, 0xff, 0x09, 0x03,
  0xf7, 0x2a, 0xf7, 0x07, 0x00, 0xc0, 0x0f, 0x1b, 0x09, 0x26, 0xef, 0x06,
  0xda, 0xfb, 0x0d, 0x06, 0xf2, 0x25, 0xda, 0x37, 0x03, 0xf5, 0xe4, 0xce,
  0x25, 0xe7, 0x0a, 0x2a, 0xe8, 0xde, 0xe6, 0xfe, 0xf8, 0x17, 0x04, 0x0e,
  0xfe, 0x0f, 0x15, 0xf2, 0x13, 0xfe, 0x0e, 0xf2, 0x14, 0xde, 0x02, 0xc7,
  0xfa, 0x35, 0xc7, 0x10, 0x2f, 0x07, 0x3f, 0x0e, 0x19, 0x16, 0x07, 0x16,
  0x11, 0xf1, 0x5f, 0xca, 0x28, 0xd9, 0xe0, 0xe0, 0x2d, 0xe5, 0xde, 0x08,
  0xe5, 0xf0, 0xf5, 0xbb, 0x12, 0xaf, 0x09, 0xde, 0xf4, 0x35, 0x24, 0xcd,
  0x21, 0x10, 0xc7, 0x44, 0x1a, 0xc8, 0xf2, 0xc8, 0xbd, 0x34, 0x0d, 0xef,
  0xfe, 0xae, 0xc7, 0x07, 0x35, 0xe6, 0x58, 0x1d, 0xbf, 0x0c, 0xfa, 0x0d,
  0x23, 0xe9, 0xd4, 0xe0, 0x1c, 0x27, 0x06, 0xfe, 0x08, 0x0a, 0xcd, 0xe6,
  0x3e, 0xd0, 0xe4, 0xd1, 0x2e, 0x47, 0x2b, 0xf3, 0x1a, 0xd6, 0x01, 0x10,
  0x4a, 0x2e, 0x0c, 0x02, 0x03, 0xd8, 0x08, 0x2d, 0x2a, 0xce, 0xff, 0xfc,
  0x52, 0x11, 0x0b, 0x23, 0xfb, 0x43, 0xea, 0x21, 0xd8, 0x11, 0xc5, 0x22,
  0x08, 0xe0, 0x17, 0x0b, 0xd8, 0x16, 0x54, 0xf5, 0x1f, 0xfb, 0xbd, 0xed,
  0x21, 0x16, 0x4b, 0xf2, 0x02, 0xeb, 0x03, 0xfd, 0x1e, 0x23, 0x16, 0xea,
  0xdf, 0x17, 0x1e, 0x04, 0xc8, 0x20, 0x04, 0x13, 0x10, 0xc7, 0xfd, 0x07,
  0xc3, 0xe2, 0x0b, 0x10, 0xdc, 0xf3, 0xfe, 0xf1, 0x08, 0xfe, 0xe2, 0xf4,
  0xf1, 0xee, 0xdd, 0xf6, 0xc2, 0x24, 0x2a, 0xe4, 0x15, 0x01, 0x2c, 0xc7,
  0xe8, 0xf0, 0x05, 0xff, 0xf8, 0xdc, 0xc0, 0x10, 0x1d, 0xf5, 0x1d, 0x1d,
  0xd6, 0x16, 0x1b, 0x1c, 0xfe, 0xf3, 0xed, 0x05, 0x26, 0x26, 0x43, 0xd3,
  0x1d, 0x1c, 0x0b, 0xeb, 0x03, 0xe5, 0x23, 0x21, 0xdc, 0xe8, 0xda, 0x25,
  0xe3, 0xef, 0xd4, 0xdc, 0xd7, 0x00, 0xfe, 0x19, 0x23, 0xcf, 0xe8, 0x0b,
  0x30, 0x0a, 0x16, 0xd2, 0x18, 0xf5, 0x05, 0x21, 0xd2, 0x13, 0x08, 0xed,
  0xd8, 0x09, 0x10, 0xe0, 0x1a, 0x00, 0x10, 0xfb, 0xf4, 0xdd, 0x24, 0x18,
  0xda, 0xcd, 0xea, 0x0a, 0xfb, 0x07, 0xd4, 0xd6, 0x08, 0xf7, 0xc0, 0xcf,
  0x0a, 0x26, 0xfc, 0xe1, 0xf6, 0xb3, 0xf7, 0xfa, 0x3d, 0x0a, 0x1f, 0x28,
  0xfa, 0x18, 0xae, 0xef, 0xc9, 0xfb, 0x13, 0x00, 0x07, 0xff, 0x1a, 0xe8,
  0xf6, 0xe8, 0x39, 0xe5, 0x2c, 0x0b, 0xe2, 0x02, 0xf9, 0x1c, 0xbe, 0x34,
  0x24, 0x17, 0x21, 0xbe, 0xea, 0xd9, 0xe3, 0x19, 0xee, 0x35, 0x06, 0xbe,
  0x04, 0xed, 0xfe, 0xf0, 0xfc, 0x1b, 0x22, 0xb3, 0x06, 0x32, 0x11, 0xc1,
  0xe2, 0xf0, 0x4c, 0xdd, 0x15, 0x0c, 0x05, 0xd9, 0x36, 0x0c, 0x30, 0xf7,
  0xfd, 0x1b, 0x0b, 0x07, 0x2e, 0x34, 0x19, 0x0d, 0x2f, 0x1c, 0x2d, 0xfa,
  0xcb, 0xdf, 0xf4, 0x07, 0x2e, 0x0d, 0xf3, 0x0a, 0xd5, 0xf8, 0x00, 0xf2,
  0x07, 0xfc, 0xf7, 0x13, 0xf4, 0x09, 0xe0, 0xfe, 0x19, 0x35, 0xff, 0xe3,
  0xe8, 0x17, 0xba, 0xe4, 0x09, 0x1e, 0xda, 0xd6, 0xd8, 0xf8, 0x18, 0xe0,
  0x38, 0xc4, 0x4e, 0xf6, 0x16, 0xca, 0x20, 0xc5, 0x26, 0xb7, 0xdd, 0xda,
  0xb3, 0x08, 0xf6, 0x15, 0x53, 0x1b, 0xb7, 0xef, 0xe4, 0x10, 0x30, 0x00,
  0x08, 0x4a, 0xca, 0x1c, 0x0b, 0xd2, 0x07, 0x2f, 0xbd, 0xe4, 0x07, 0xfd,
  0x02, 0x4f, 0xe5, 0xbb, 0xd2, 0xdc, 0x36, 0x21, 0xf8, 0x3b, 0xe5, 0x30,
  0xf2, 0x16, 0xf8, 0x34, 0xf4, 0x17, 0x0a, 0xf4, 0xee, 0xf1, 0xe3, 0x01,
  0x21, 0xf4, 0x23, 0x2a, 0xea, 0x0a, 0x0f, 0x14, 0x19, 0xf3, 0xde, 0xfc,
  0x3e, 0xe5, 0xdd, 0x18, 0x02, 0xda, 0x1e, 0xf2, 0xc3, 0xc9, 0xd2, 0x08,
  0xd7, 0x03, 0x13, 0x24, 0xe2, 0xd2, 0x07, 0xfd, 0x28, 0x06, 0x19, 0x39,
  0x38, 0x06, 0x15, 0x2a, 0xf8, 0x08, 0xec, 0x2f, 0x2c, 0x35, 0xb2, 0xcc,
  0x2a, 0x11, 0x0c, 0x06, 0x2e, 0xf8, 0x0f, 0x16, 0x23, 0xcf, 0xc0, 0x20,
  0xd6, 0x01, 0x48, 0x3e, 0x23, 0x0a, 0xe2, 0xe1, 0x5a, 0xe3, 0x3a, 0x07,
  0x04, 0xed, 0xfb, 0xf0, 0x1e, 0xf5, 0x10, 0xec, 0xe3, 0xd1, 0x0b, 0x11,
  0x06, 0x19, 0xbd, 0xed, 0x31, 0xfd, 0xdd, 0xb9, 0xdc, 0x26, 0x12, 0x0c,
  0x23, 0xc4, 0xc9, 0xfc, 0x2b, 0xe8, 0x50, 0xf2, 0xe0, 0xe4, 0xbf, 0x41,
  0x28, 0xf9, 0xcb, 0x0b, 0xe8, 0x1c, 0x15, 0x43, 0x15, 0xef, 0x14, 0x47,
  0x1d, 0xf0, 0xfc, 0xe4, 0xd3, 0xed, 0x13, 0x23, 0x0c, 0xfb, 0x1f, 0xe9,
  0xfc, 0xf5, 0x2b, 0xcc, 0xfb, 0x2e, 0x36, 0x0b, 0x05, 0xe3, 0x00, 0x23,
  0x3f, 0xdd, 0xcf, 0x09, 0x00, 0xf3, 0x24, 0xe9, 0xe1, 0x1d, 0xae, 0xe6,
  0x0e, 0x08, 0xf9, 0x25, 0x02, 0xdc, 0x4e, 0x05, 0x1d, 0xfa, 0xe6, 0x14,
  0xe1, 0x09, 0x1f, 0x28, 0xf4, 0x42, 0x0b, 0x15, 0x01, 0x3e, 0x08, 0xc3,
  0xad, 0x10, 0xf0, 0xf6, 0xbd, 0xf8, 0xdd, 0x0a, 0x0d, 0x26, 0xdc, 0x1e,
  0x20, 0x25, 0x29, 0xd9, 0xf8, 0x39, 0xde, 0xee, 0xf8, 0xf4, 0x2a, 0xf0,
  0x15, 0x29, 0x37, 0x25, 0x26, 0xfe, 0x3b, 0x08, 0x39, 0x08, 0x17, 0xfb,
  0x16, 0x1b, 0x49, 0x2c, 0x52, 0x02, 0xc3, 0x14, 0xd3, 0xe3, 0xf7, 0xe7,
  0x08, 0xfd, 0x25, 0x30, 0x3b, 0x10, 0xea, 0x16, 0xe7, 0x1d, 0xdf, 0xcf,
  0xc2, 0xcc, 0x0e, 0xf5, 0xfc, 0x13, 0xe9, 0x0d, 0x05, 0xf1, 0xe8, 0xb7,
  0xfd, 0x05, 0x09, 0xcd, 0x16, 0x26, 0x3d, 0xf2, 0xe8, 0xd0, 0xfc, 0xf0,
  0xed, 0x18, 0x03, 0xf0, 0xeb, 0xf8, 0x17, 0xab, 0x09, 0x18, 0x27, 0xf8,
  0xf8, 0xdb, 0x39, 0xf7, 0xeb, 0xe9, 0xe9, 0xf2, 0xd8, 0x3d, 0xc9, 0xb7,
  0x02, 0x03, 0xf6, 0xf7, 0xfc, 0xec, 0x01, 0xe6, 0xc5, 0x08, 0x0a, 0xd8,
  0xdb, 0x06, 0xc4, 0x06, 0xbb, 0xb3, 0xc1, 0x0d, 0x27, 0xba, 0xd4, 0xf9,
  0x01, 0x08, 0x43, 0xe3, 0xc9, 0x2e, 0xd1, 0x0b, 0x20, 0x09, 0xae, 0x36,
  0xf7, 0x30, 0x40, 0xf1, 0x07, 0x2d, 0xb8, 0x27, 0xf9, 0x35, 0xf8, 0x08,
  0x28, 0xca, 0xdd, 0xca, 0x53, 0xca, 0xfe, 0xf6, 0x22, 0xd7, 0x27, 0x12,
  0x05, 0x1c, 0x1b, 0x19, 0xe5, 0x35, 0xe2, 0xe1, 0xd7, 0xf7, 0x22, 0x1d,
  0xb3, 0x26, 0xfe, 0xe3, 0xe5, 0x18, 0x07, 0xe8, 0x0c, 0x37, 0xc8, 0xf5,
  0xee, 0xf6, 0xf5, 0xfd, 0x11, 0x2c, 0xdc, 0xfa, 0x11, 0xfe, 0x53, 0x1b,
  0xb6, 0x02, 0x19, 0x45, 0xe7, 0x2b, 0x0c, 0xdb, 0x3a, 0xeb, 0xe2, 0xf2,
  0xfd, 0xfd, 0x1e, 0xeb, 0x10, 0x14, 0xc8, 0xc1, 0x37, 0x27, 0x28, 0xec,
  0xeb, 0x23, 0xd2, 0x0d, 0xd9, 0xcf, 0x0b, 0x19, 0x11, 0xd5, 0xdf, 0xf4,
  0xaf, 0xed, 0xfd, 0xd8, 0xc5, 0xfd, 0x0c, 0x04, 0xff, 0x11, 0xe0, 0xd0,
  0xdd, 0x1e, 0xcb, 0x08, 0xbc, 0xd6, 0xfb, 0x09, 0x3c, 0x14, 0xf6, 0x27,
  0xcb, 0xd3, 0xf4, 0x2d, 0x27, 0xbc, 0x08, 0x01, 0x1a, 0x0a, 0x0d, 0xda,
  0x1e, 0xbd, 0x1c, 0x05, 0x32, 0xe6, 0x28, 0xc8, 0xf0, 0xdb, 0xeb, 0xe2,
  0xd5, 0xf4, 0xe2, 0x37, 0x47, 0xc5, 0xe6, 0x17, 0xee, 0xde, 0x1f, 0x14,
  0xb1, 0x06, 0x22, 0xf5, 0x2b, 0x14, 0xb3, 0x13, 0x02, 0xe0, 0x03, 0xfe,
  0x12, 0xdb, 0x33, 0x25, 0x29, 0x3d, 0x17, 0x1d, 0x00, 0xc1, 0x4c, 0xea,
  0x0d, 0xa6, 0x2f, 0x1d, 0x3e, 0xff, 0x01, 0xe4, 0x3f, 0x04, 0xd8, 0x27,
  0xd1, 0xe8, 0x49, 0x13, 0x04, 0x17, 0xe8, 0xea, 0x43, 0xe1, 0x3f, 0x23,
  0x07, 0x1d, 0x16, 0x0d, 0xf6, 0xdc, 0xef, 0xf1, 0xd4, 0xe8, 0x28, 0x3d,
  0xef, 0x13, 0xef, 0xc3, 0x05, 0x1a, 0xf1, 0xc5, 0x4d, 0xdf, 0xeb, 0x18,
  0xda, 0x0a, 0x05, 0x1f, 0x08, 0x0d, 0xd2, 0xe9, 0xfd, 0x0b, 0x31, 0xff,
  0x01, 0x16, 0xe9, 0xff, 0x31, 0x07, 0x0f, 0x15, 0xe4, 0xc2, 0xfe, 0xd9,
  0xfe, 0x4d, 0xc0, 0x36, 0xee, 0xdb, 0x10, 0x0a, 0x01, 0xf8, 0xee, 0x05,
  0xd9, 0x27, 0x35, 0x17, 0xe3, 0x16, 0x08, 0x29, 0x0e, 0xcb, 0xce, 0xeb,
  0xc9, 0x31, 0x27, 0x0e, 0xe9, 0xfa, 0x0a, 0xfe, 0x1f, 0xed, 0xe0, 0x15,
  0x3f, 0x32, 0xd5, 0x34, 0x1e, 0xce, 0x32, 0xff, 0x29, 0x11, 0xb5, 0x25,
  0x1c, 0xe5, 0xc4, 0xf6, 0x0d, 0xea, 0x03, 0x14, 0x3e, 0x0a, 0xf8, 0x03,
  0xea, 0x41, 0x24, 0xdb, 0xc6, 0x41, 0x01, 0x26, 0xfa, 0x07, 0xf9, 0xf8,
  0xf9, 0x2e, 0xf6, 0x24, 0x04, 0x1f, 0x22, 0x00, 0xf3, 0xdd, 0xe2, 0x2c,
  0xd7, 0xb0, 0x2d, 0xc6, 0x00, 0x1f, 0xdc, 0xfb, 0x27, 0xe7, 0xf9, 0xfc,
  0xdb, 0xdf, 0x06, 0x25, 0xfd, 0x57, 0x0e, 0x3f, 0x24, 0x1d, 0xe8, 0xfa,
  0xcf, 0x07, 0x1a, 0x15, 0x03, 0x59, 0xfa, 0x29, 0x0a, 0xdb, 0x30, 0xc8,
  0xea, 0x3e, 0x4f, 0xfb, 0x10, 0xed, 0x05, 0x25, 0x07, 0x0d, 0x18, 0xb8,
  0x25, 0x02, 0xfa, 0x2b, 0x3b, 0xfe, 0xbc, 0xf3, 0xf8, 0x11, 0x0f, 0xe1,
  0x09, 0x1d, 0x39, 0x38, 0x06, 0xfe, 0x0b, 0x17, 0xee, 0xdb, 0x0f, 0x13,
  0xed, 0x1d, 0x24, 0x1a, 0x30, 0xd0, 0x00, 0xe3, 0xea, 0x42, 0xe7, 0xf0,
  0x02, 0xeb, 0x19, 0xdb, 0x13, 0x1a, 0xaf, 0xe6, 0x3c, 0xe9, 0xc0, 0xf9,
  0xe8, 0x0d, 0x18, 0xe7, 0x22, 0x14, 0xbf, 0x0c, 0x10, 0xc8, 0x09, 0xe3,
  0xe7, 0x08, 0xfb, 0x14, 0x1e, 0xd0, 0x1e, 0xf8, 0xe8, 0xf5, 0xde, 0xf6,
  0x0a, 0x2f, 0xee, 0xec, 0xe6, 0x2e, 0x29, 0xfb, 0x0d, 0x11, 0xfe, 0x32,
  0x2a, 0x05, 0xf6, 0xee, 0xe3, 0xf5, 0xfc, 0xca, 0xd4, 0x10, 0x26, 0xca,
  0xd8, 0xd4, 0xeb, 0xee, 0x24, 0xdf, 0x0f, 0xc0, 0x02, 0xf0, 0x3a, 0xf1,
  0x3c, 0x13, 0xe4, 0x06, 0xde, 0xe0, 0x0b, 0xe8, 0x44, 0x2c, 0xd0, 0xea,
  0xe9, 0xc8, 0x1b, 0x30, 0xe5, 0xd0, 0x2b, 0xf5, 0x00, 0x35, 0xd7, 0x3d,
  0xe4, 0xe3, 0x1e, 0xf5, 0x12, 0x16, 0xf8, 0x2c, 0x0a, 0xdd, 0xef, 0xda,
  0x39, 0xfb, 0xf5, 0x0d, 0xf0, 0x3e, 0xfc, 0x12, 0x26, 0x10, 0x15, 0x1c,
  0x1d, 0x0a, 0x40, 0x39, 0x2e, 0x4d, 0xd1, 0x2b, 0x23, 0x0f, 0xcf, 0xed,
  0x13, 0xfe, 0x22, 0xdf, 0xf5, 0x03, 0x09, 0xe1, 0x06, 0xf1, 0xf7, 0x10,
  0xd9, 0xe4, 0x62, 0x29, 0xef, 0xce, 0x42, 0x01, 0x2d, 0xfa, 0xee, 0x2a,
  0xca, 0xef, 0xf5, 0xdb, 0xe5, 0x12, 0xf5, 0x14, 0x39, 0xdc, 0x42, 0x00,
  0xfa, 0x30, 0x10, 0xea, 0x25, 0x35, 0xf0, 0xb0, 0x09, 0xdd, 0x4b, 0xd0,
  0xef, 0x25, 0xc3, 0x39, 0x07, 0x11, 0xe1, 0xd9, 0x08, 0xd0, 0x29, 0xf9,
  0xe2, 0xb2, 0xd6, 0xdc, 0xfc, 0x0d, 0xd6, 0xcf, 0x1e, 0x2d, 0x0e, 0xe2,
  0x24, 0xcd, 0xe5, 0xdb, 0xe8, 0xe6, 0x2d, 0x24, 0xc4, 0x0b, 0xef, 0xee,
  0xf8, 0x05, 0xde, 0x09, 0x36, 0x36, 0xf9, 0xcb, 0xe3, 0x31, 0xe5, 0xcc,
  0xf7, 0xee, 0x23, 0x36, 0xf2, 0x0c, 0x2d, 0xdb, 0x0c, 0xdb, 0x0c, 0xf7,
  0x2b, 0x05, 0xdf, 0xf5, 0x01, 0xf5, 0xd7, 0x14, 0x21, 0xce, 0x0b, 0xc9,
  0x43, 0xe6, 0x15, 0x04, 0xd3, 0x08, 0x0c, 0xe7, 0x15, 0x02, 0xfb, 0xfa,
  0x1d, 0x0e, 0x03, 0xc5, 0xfb, 0xbb, 0x24, 0x0e, 0x22, 0x20, 0x0b, 0x30,
  0xd4, 0x1b, 0xa6, 0x00, 0xed, 0x1d, 0x00, 0x1d, 0xf4, 0x11, 0x29, 0x4a,
  0xe1, 0xb6, 0x31, 0x0c, 0xdb, 0x45, 0xd3, 0x6d, 0x6e, 0x17, 0xb7, 0xf6,
  0x12, 0x0d, 0x0c, 0x14, 0x15, 0x0f, 0xed, 0x16, 0x00, 0xce, 0x41, 0xe4,
  0xd3, 0x18, 0xe6, 0x0b, 0x13, 0xe3, 0xfc, 0x0c, 0x00, 0x0e, 0x22, 0xda,
  0xbf, 0x24, 0xfc, 0x02, 0x01, 0xfe, 0xdf, 0x26, 0x22, 0xc6, 0x0d, 0xf3,
  0x0f, 0x1a, 0x0b, 0x13, 0x03, 0xca, 0xde, 0x04, 0xf2, 0xf0, 0x07, 0xeb,
  0xfb, 0x42, 0xee, 0x03, 0x27, 0xdf, 0x12, 0x22, 0x01, 0x04, 0xe8, 0xcf,
  0x26, 0x11, 0xec, 0x16, 0x1f, 0xfa, 0xd3, 0xe0, 0x09, 0x10, 0x0d, 0xd3,
  0xc4, 0x06, 0x0e, 0x1b, 0x32, 0x1d, 0x21, 0x03, 0x3f, 0x0a, 0x1b, 0xd9,
  0x16, 0x00, 0x02, 0xc7, 0x03, 0xde, 0x0b, 0xfc, 0xec, 0xf7, 0xca, 0x00,
  0xfd, 0x30, 0xef, 0xfa, 0xe1, 0xdc, 0x08, 0xfe, 0xf7, 0xd8, 0xfd, 0xeb,
  0xbf, 0x05, 0xf8, 0x27, 0xe8, 0xef, 0xec, 0xd6, 0x13, 0xe8, 0x00, 0x21,
  0xeb, 0xf9, 0xfd, 0x29, 0xeb, 0xd4, 0xc3, 0xb2, 0x2d, 0x12, 0x15, 0x0e,
  0xbb, 0x9d, 0x3a, 0x17, 0xf9, 0x00, 0x11, 0xdc, 0x0c, 0xc0, 0x2a, 0x1a,
  0xfd, 0xe1, 0x0b, 0x21, 0xff, 0x17, 0xf7, 0xd5, 0xf4, 0xfe, 0x09, 0x48,
  0x0b, 0xd3, 0x30, 0x0e, 0xef, 0xfb, 0x09, 0x38, 0xeb, 0xf5, 0x2b, 0x15,
  0x19, 0xe9, 0x48, 0x04, 0xff, 0x1b, 0xaf, 0x06, 0x14, 0x2d, 0x2c, 0x2f,
  0x00, 0xf3, 0x09, 0xde, 0x04, 0x31, 0xd6, 0x26, 0x30, 0x11, 0x02, 0x3c,
  0x03, 0xf9, 0x21, 0xe3, 0x2e, 0x09, 0xce, 0x22, 0x2f, 0x2c, 0x08, 0x0a,
  0xd8, 0x02, 0x07, 0x0f, 0x09, 0xdc, 0xf0, 0xf1, 0x0e, 0x28, 0xcf, 0xe1,
  0xcf, 0x2e, 0x00, 0x13, 0x12, 0x22, 0xc2, 0xfb, 0xac, 0xce, 0xe5, 0x2e,
  0xf3, 0xda, 0xc7, 0x22, 0xda, 0x2e, 0xee, 0x11, 0x2f, 0x02, 0xc3, 0x0d,
  0xf2, 0xeb, 0x3c, 0x03, 0x33, 0xf2, 0xcc, 0xb1, 0x12, 0xd0, 0x4b, 0xf6,
  0xde, 0xc9, 0xef, 0xe1, 0x00, 0xcd, 0x19, 0xe5, 0x0e, 0x10, 0xe5, 0xe0,
  0x29, 0xcc, 0x2c, 0xf9, 0x0c, 0xd4, 0x16, 0x24, 0xd4, 0x44, 0xef, 0xe1,
  0xf7, 0x02, 0xbb, 0xf6, 0x51, 0x0d, 0x20, 0x0d, 0xfc, 0x1e, 0x19, 0x34,
  0xe3, 0x10, 0x22, 0x03, 0x22, 0x01, 0xfe, 0xe7, 0xf9, 0x39, 0x01, 0xf5,
  0xe8, 0xc6, 0xc1, 0x00, 0x12, 0x1a, 0x21, 0xd4, 0xf6, 0xdc, 0xfa, 0x15,
  0x09, 0x1a, 0xd9, 0xee, 0xee, 0x0c, 0x07, 0xd3, 0xfa, 0xbe, 0xe2, 0xc0,
  0xfe, 0xf9, 0x28, 0x3d, 0xf7, 0x0a, 0x1f, 0x21, 0xfb, 0xec, 0x3e, 0x25,
  0x39, 0xcf, 0xe0, 0xfc, 0xfc, 0x08, 0xee, 0x02, 0xf8, 0x39, 0x0c, 0x09,
  0xee, 0xf7, 0x08, 0xe8, 0x35, 0xe6, 0x24, 0x0f, 0x03, 0xef, 0x31, 0x01,
  0xee, 0xdd, 0x20, 0xe9, 0x2f, 0x07, 0x00, 0x03, 0xf7, 0xe3, 0x41, 0x15,
  0x19, 0xd8, 0xbd, 0x03, 0x23, 0x03, 0xdd, 0xff, 0xe6, 0xff, 0xd5, 0x14,
  0x21, 0xdd, 0xb9, 0xdb, 0xec, 0xce, 0xef, 0xda, 0xfa, 0xfe, 0xf8, 0xf6,
  0x26, 0xf2, 0xfa, 0x0c, 0x1b, 0xe6, 0xea, 0x03, 0x2d, 0x05, 0xe0, 0x21,
  0x01, 0x2c, 0xdf, 0x20, 0x10, 0x04, 0x0b, 0xfd, 0xfa, 0xf3, 0xfa, 0x1e,
  0xf8, 0x3d, 0xeb, 0x33, 0xc6, 0x15, 0x07, 0xd4, 0x02, 0xbf, 0xe4, 0x04,
  0xfa, 0x09, 0x29, 0xef, 0xfd, 0x17, 0x10, 0xfb, 0x23, 0x16, 0xd3, 0x2a,
  0xd3, 0xf9, 0xe9, 0xf0, 0x05, 0x0a, 0xd1, 0x2c, 0x0a, 0x00, 0x0d, 0x11,
  0x2c, 0xce, 0x06, 0xfa, 0x1d, 0x40, 0x2b, 0x0b, 0xf9, 0xc4, 0x0e, 0x19,
  0x1b, 0x1c, 0x19, 0x0c, 0xf3, 0x1a, 0x02, 0x40, 0xde, 0x10, 0xe9, 0x1a,
  0xe3, 0x11, 0xfe, 0x0d, 0xea, 0xf0, 0x03, 0xf4, 0xf2, 0xef, 0xfe, 0xf1,
  0x0d, 0xb9, 0xd3, 0xf3, 0xcd, 0xed, 0xf8, 0x14, 0xec, 0x16, 0x27, 0x29,
  0x05, 0xdb, 0x09, 0x24, 0xd7, 0xde, 0x31, 0xec, 0x24, 0xd9, 0x0c, 0xdf,
  0xca, 0xdd, 0xe8, 0x30, 0xdc, 0x1d, 0x0c, 0x04, 0xed, 0xdc, 0xf1, 0x20,
  0x0c, 0xf0, 0x23, 0xd8, 0xf4, 0x1c, 0xeb, 0x03, 0x16, 0x33, 0xe8, 0x07,
  0xbd, 0x10, 0x04, 0x01, 0xec, 0xed, 0x23, 0xc9, 0x15, 0x1a, 0x0c, 0x17,
  0xd9, 0x16, 0xc8, 0x32, 0x05, 0x1e, 0x08, 0x02, 0xe7, 0xd9, 0x23, 0x02,
  0x0f, 0x0e, 0xfc, 0x1a, 0xc7, 0xed, 0x20, 0xfd, 0x0b, 0x37, 0x45, 0x13,
  0xe5, 0xfe, 0x18, 0xe3, 0xcf, 0x13, 0xee, 0xdb, 0x3d, 0xea, 0xc3, 0x0f,
  0xfa, 0x25, 0xff, 0xed, 0x22, 0x0e, 0xcf, 0xb4, 0xf9, 0x3c, 0xb6, 0xda,
  0xcc, 0xe5, 0x1c, 0xea, 0xf2, 0x09, 0xd6, 0xf1, 0x0b, 0xfd, 0x0a, 0x28,
  0x25, 0xce, 0x26, 0x02, 0xf8, 0x05, 0xca, 0xde, 0x35, 0x1e, 0xc3, 0xd7,
  0xb3, 0xd5, 0x37, 0xc8, 0xe4, 0xde, 0xf4, 0x2f, 0xdb, 0x11, 0x1b, 0x12,
  0xc1, 0x19, 0x0f, 0xc7, 0xfe, 0x19, 0xe0, 0xe8, 0x22, 0x39, 0xd6, 0x01,
  0xd5, 0xcb, 0x16, 0x01, 0xda, 0x0f, 0x0a, 0x0b, 0xfa, 0xf7, 0x34, 0x01,
  0x20, 0xfa, 0x18, 0xe4, 0xe1, 0xf4, 0x0b, 0xe2, 0xfc, 0xf6, 0x16, 0x1a,
  0x20, 0x04, 0x51, 0xee, 0x3b, 0x1f, 0xce, 0xe7, 0x06, 0xdb, 0xcb, 0xc9,
  0xf4, 0x02, 0xe7, 0xfe, 0xe5, 0x0b, 0xee, 0x01, 0xd8, 0x0d, 0x42, 0x23,
  0x01, 0x04, 0xc8, 0x18, 0x35, 0x28, 0xde, 0x01, 0xfc, 0x0b, 0x0d, 0x16,
  0x05, 0x2f, 0x1a, 0xec, 0xe9, 0x00, 0x26, 0xfd, 0x13, 0x2a, 0xf1, 0x17,
  0x18, 0x1f, 0xdf, 0xf0, 0x0c, 0xe3, 0xdc, 0xe8, 0xf9, 0xff, 0x41, 0x04,
  0xe2, 0x40, 0xf9, 0xf1, 0xd2, 0x08, 0xea, 0x19, 0xea, 0x02, 0xd5, 0x04,
  0xff, 0xda, 0xe9, 0xd1, 0x3a, 0xf9, 0xdf, 0xfd, 0xd2, 0x01, 0x41, 0x05,
  0x09, 0xf5, 0xf7, 0xf1, 0xef, 0xed, 0xcd, 0xe7, 0x0b, 0x05, 0xf2, 0xd8,
  0xdd, 0xe3, 0x27, 0xd7, 0x01, 0xe0, 0x38, 0x06, 0x07, 0x05, 0xe9, 0x07,
  0xfb, 0x22, 0xfe, 0x18, 0x03, 0x1e, 0xfc, 0xd6, 0xd5, 0x23, 0x33, 0xe1,
  0xee, 0x03, 0x0f, 0xdc, 0x0f, 0xf7, 0x05, 0x0b, 0xe5, 0x03, 0xdc, 0x30,
  0xec, 0x0c, 0xe1, 0x3c, 0x34, 0xd2, 0xe2, 0xef, 0x1f, 0xed, 0xc0, 0xe0,
  0x0c, 0xcb, 0xf7, 0x1b, 0xee, 0x29, 0xb9, 0x07, 0xd4, 0xf9, 0xe4, 0x02,
  0x0f, 0x20, 0x19, 0x2a, 0xf1, 0xfd, 0x1c, 0xf8, 0xe1, 0xe7, 0xfb, 0x11,
  0xe6, 0xeb, 0x0f, 0xf3, 0xfc, 0x11, 0x22, 0xf3, 0x23, 0x04, 0x13, 0x1f,
  0xd5, 0x0e, 0xfe, 0x09, 0x3c, 0xc1, 0xdd, 0x06, 0x45, 0xe5, 0xe9, 0x10,
  0xf6, 0xdd, 0x0b, 0x18, 0x0c, 0x01, 0x07, 0xda, 0x14, 0x13, 0x13, 0xd9,
  0x0e, 0x36, 0xd1, 0xea, 0x20, 0xe6, 0xfa, 0xe0, 0xf0, 0x13, 0x17, 0xe7,
  0xe5, 0xd8, 0x1c, 0x06, 0x39, 0xf0, 0xea, 0x22, 0x11, 0x1a, 0xf7, 0x14,
  0x18, 0x01, 0x16, 0xf6, 0x18, 0xe0, 0x0d, 0x3e, 0x03, 0x1d, 0xf1, 0xf8,
  0xcd, 0xc7, 0x00, 0x27, 0xcd, 0x1d, 0xed, 0x0d, 0xe6, 0x21, 0xe9, 0xd6,
  0x0c, 0x0c, 0x09, 0xfb, 0x1e, 0xcf, 0xf6, 0xcf, 0xd8, 0x3b, 0xd8, 0x17,
  0xd0, 0xc0, 0x10, 0x23, 0xe0, 0xe1, 0x28, 0x45, 0x3d, 0xec, 0xf0, 0x01,
  0x47, 0x3b, 0x0e, 0x0d, 0x15, 0xdb, 0xf0, 0xf4, 0x0b, 0xfb, 0xbb, 0x13,
  0xee, 0x06, 0xc9, 0xeb, 0xe7, 0xfd, 0xe5, 0x23, 0x26, 0xfe, 0xed, 0xd5,
  0xef, 0x04, 0x28, 0x0d, 0x08, 0x15, 0x02, 0x1d, 0x1e, 0xda, 0xef, 0x44,
  0x38, 0x16, 0x19, 0xbd, 0xdd, 0x01, 0xe6, 0xd0, 0xeb, 0x16, 0xe2, 0xf2,
  0xf8, 0x37, 0x07, 0x1a, 0xe4, 0xe4, 0x35, 0x03, 0xf8, 0x1e, 0x2f, 0xf4,
  0xf9, 0x19, 0xd4, 0xc0, 0xd3, 0x1a, 0xfa, 0x0d, 0xea, 0x30, 0xd9, 0x23,
  0xf1, 0xd1, 0xf3, 0xc7, 0xf8, 0x2e, 0xf7, 0xd6, 0x2f, 0x19, 0x17, 0xf6,
  0x06, 0xef, 0x41, 0xe5, 0x0c, 0xf9, 0xe9, 0xf2, 0xe8, 0x05, 0x0f, 0x1f,
  0xd8, 0x27, 0x13, 0x0f, 0x1e, 0x15, 0x15, 0xc0, 0x24, 0x06, 0x12, 0xd6,
  0x00, 0xe2, 0xd8, 0x28, 0x02, 0xef, 0xe7, 0xd0, 0x12, 0xfe, 0x09, 0xd0,
  0x25, 0xe0, 0xfb, 0x06, 0xf0, 0x30, 0xd5, 0x1f, 0x3e, 0xf1, 0xdb, 0xc4,
  0xe9, 0xb4, 0x11, 0x08, 0x1a, 0x15, 0xec, 0xe8, 0xee, 0xfc, 0xd3, 0xf9,
  0xf3, 0xaa, 0x14, 0x32, 0x17, 0xfd, 0x17, 0xd3, 0x22, 0xec, 0xfa, 0xf0,
  0xf5, 0xed, 0xec, 0xf1, 0xf3, 0xc9, 0xdd, 0x34, 0x48, 0xed, 0x1a, 0xf6,
  0xef, 0xfe, 0x0b, 0xda, 0xfb, 0x31, 0x18, 0x0f, 0x4a, 0x23, 0x31, 0x05,
  0xca, 0xdd, 0x1d, 0xed, 0x05, 0x05, 0xd6, 0xd9, 0x2f, 0x2f, 0xe6, 0xe0,
  0x07, 0x03, 0x29, 0x03, 0x43, 0x13, 0xb0, 0xeb, 0xea, 0x0f, 0x06, 0x1c,
  0xe1, 0xe3, 0x25, 0x2d, 0x47, 0x47, 0xe0, 0xd0, 0x07, 0x26, 0xc5, 0xdd,
  0xeb, 0x1b, 0x4b, 0xeb, 0x0c, 0x00, 0x31, 0xd3, 0xd7, 0x1a, 0xfa, 0xfe,
  0x05, 0x2c, 0xf1, 0xd7, 0xcc, 0xed, 0xc8, 0x39, 0xfe, 0x45, 0xec, 0xc3,
  0xe3, 0xe0, 0x18, 0x1b, 0x11, 0xf5, 0xfc, 0xc0, 0x3f, 0x0b, 0xf9, 0xf1,
  0x0a, 0xfb, 0x36, 0xcf, 0x18, 0xeb, 0xef, 0x06, 0x02, 0xca, 0xf9, 0xf5,
  0xbe, 0xd4, 0x54, 0xec, 0xf7, 0x0e, 0xe3, 0xd7, 0x13, 0xfc, 0x36, 0xe5,
  0xe3, 0x01, 0x23, 0xfb, 0x30, 0x17, 0xb0, 0xf8, 0x21, 0xd6, 0x0f, 0xd9,
  0xce, 0xca, 0x21, 0xd6, 0x1f, 0x43, 0x27, 0x20, 0x2d, 0x11, 0xff, 0x2a,
  0xee, 0xee, 0x39, 0x15, 0xf0, 0xe8, 0xe1, 0xfb, 0x32, 0x08, 0x0a, 0xf6,
  0xeb, 0xf4, 0x09, 0x0e, 0x11, 0x11, 0xef, 0xee, 0x37, 0xcf, 0x02, 0xe1,
  0xfc, 0xd9, 0xfa, 0xcb, 0x20, 0x0b, 0x10, 0xfd, 0xd7, 0x2a, 0xfd, 0x1a,
  0x1c, 0xb6, 0x38, 0xe3, 0xff, 0x0a, 0xc7, 0xa7, 0xf2, 0x06, 0x3b, 0x0e,
  0x1d, 0x23, 0x30, 0xd2, 0x15, 0xe0, 0xcd, 0x02, 0x49, 0x4c, 0xc5, 0xe1,
  0x23, 0xf6, 0x06, 0x07, 0x24, 0xd7, 0xf4, 0xac, 0x27, 0x17, 0xf0, 0xfc,
  0xf8, 0xc8, 0xe3, 0xc1, 0x0e, 0x00, 0xd8, 0x17, 0x1f, 0x04, 0xef, 0xf7,
  0xd4, 0x24, 0x37, 0x2e, 0xed, 0xc1, 0x31, 0xd1, 0xfc, 0x01, 0x35, 0x23,
  0x17, 0xfc, 0x04, 0xb9, 0x07, 0x15, 0x31, 0xed, 0x26, 0x0f, 0x3c, 0x41,
  0xe7, 0xfb, 0xfd, 0xfd, 0xe3, 0x08, 0xef, 0x34, 0x11, 0xf7, 0xd2, 0x04,
  0xb9, 0xe1, 0x20, 0xf6, 0x35, 0xf5, 0x1f, 0xfb, 0x2f, 0x32, 0x28, 0xfc,
  0x12, 0xfa, 0x3c, 0x19, 0xcf, 0x28, 0xd4, 0x05, 0xeb, 0x0e, 0xeb, 0x2d,
  0xde, 0xd9, 0xfe, 0xfa, 0xbb, 0xf9, 0xf6, 0x1e, 0xe7, 0xfc, 0xc3, 0x10,
  0x00, 0x0c, 0xf3, 0x08, 0x41, 0xd1, 0xff, 0xce, 0xf6, 0xeb, 0xfc, 0xee,
  0xfa, 0xd1, 0x16, 0xde, 0x30, 0x3e, 0xfd, 0xf8, 0xfb, 0xf6, 0xfb, 0xde,
  0xec, 0x22, 0xf0, 0xdc, 0xc5, 0x00, 0xe0, 0x4c, 0xda, 0x2f, 0x08, 0x1b,
  0x22, 0x0d, 0x0e, 0x09, 0xea, 0xe9, 0x06, 0xfd, 0x06, 0x0b, 0xc7, 0x11,
  0x11, 0x1b, 0xfa, 0x07, 0xf6, 0xf1, 0xd5, 0x35, 0xf2, 0xde, 0xf3, 0x04,
  0xfe, 0xeb, 0x21, 0xd5, 0x00, 0x06, 0xfd, 0x07, 0xfd, 0x09, 0xe0, 0xe6,
  0x09, 0x3e, 0xf0, 0x3d, 0x0e, 0xda, 0xfb, 0xc8, 0x2d, 0x15, 0x16, 0x0d,
  0x26, 0xf1, 0xcd, 0x0b, 0xd4, 0x1a, 0x10, 0xdb, 0x3c, 0xf1, 0xc2, 0xd1,
  0x01, 0x1a, 0xff, 0x04, 0xd6, 0x14, 0x10, 0xdf, 0xfb, 0xe0, 0x3e, 0x43,
  0xbc, 0x0a, 0xf9, 0x18, 0x01, 0x10, 0x32, 0xf6, 0xd8, 0x07, 0x23, 0xd0,
  0xf5, 0x28, 0xc3, 0xdf, 0xe6, 0xff, 0x39, 0xdf, 0x22, 0x18, 0xd8, 0x13,
  0x08, 0xe0, 0x05, 0x30, 0xb3, 0x14, 0xe9, 0xf1, 0x5a, 0x12, 0xe9, 0x23,
  0x12, 0x4a, 0x00, 0xe8, 0x2d, 0xfb, 0x37, 0xea, 0xe9, 0xf0, 0x38, 0xc2,
  0xfb, 0xd9, 0xfb, 0x14, 0x22, 0x2b, 0x0a, 0x07, 0x1c, 0xf8, 0x19, 0xc3,
  0xe4, 0x2c, 0x1a, 0x02, 0xcb, 0x04, 0xea, 0xf2, 0x0a, 0x16, 0xe6, 0xc9,
  0xf7, 0x03, 0xfa, 0x17, 0x29, 0xfa, 0xc0, 0xf8, 0x11, 0x10, 0x00, 0x0a,
  0x09, 0x0e, 0xf6, 0x22, 0xfe, 0xd7, 0x16, 0x1e, 0x2c, 0x25, 0x1a, 0xc2,
  0xdc, 0xf9, 0xf4, 0x0b, 0x1e, 0xe5, 0xe4, 0x15, 0xe1, 0xf3, 0x33, 0xf0,
  0xe3, 0xfa, 0x1e, 0x0f, 0x00, 0x00, 0x27, 0xdd, 0x14, 0xeb, 0x16, 0x10,
  0xe2, 0x11, 0xd2, 0x35, 0xd9, 0x0d, 0xcd, 0xf0, 0xe7, 0x19, 0xdf, 0xdb,
  0xe1, 0x0d, 0xdf, 0x2e, 0x29, 0x21, 0x36, 0xc5, 0xd1, 0x34, 0xf5, 0xf6,
  0x14, 0x6a, 0x14, 0x45, 0x1b, 0x18, 0x3c, 0xf8, 0xf4, 0x1a, 0xfc, 0xb7,
  0x16, 0xfa, 0x0c, 0xf3, 0x07, 0xf5, 0x20, 0xc8, 0xfb, 0x0c, 0xcd, 0xd1,
  0xce, 0xa8, 0x1d, 0x03, 0xf2, 0xeb, 0xeb, 0xc5, 0xf4, 0xda, 0xf8, 0xf5,
  0xe3, 0xca, 0x0f, 0x47, 0xfd, 0xfa, 0x1a, 0xbf, 0x04, 0x23, 0xd5, 0xe8,
  0x1a, 0xba, 0x18, 0x14, 0xf2, 0x2a, 0x36, 0xb2, 0x17, 0x18, 0xe1, 0x1b,
  0xfc, 0xb3, 0xf8, 0x35, 0x18, 0xd8, 0xdd, 0xe7, 0x22, 0x22, 0xfd, 0xed,
  0xfb, 0x2e, 0x0e, 0x0f, 0x11, 0x12, 0xfa, 0xef, 0x11, 0x15, 0xda, 0x11,
  0x0e, 0x28, 0x40, 0x0d, 0x3b, 0xfd, 0x21, 0xf1, 0xcb, 0x00, 0x00, 0x02,
  0xe0, 0x26, 0x35, 0x0a, 0x2c, 0xfb, 0xc2, 0xdd, 0x1a, 0xe0, 0x0c, 0x0b,
  0x29, 0x0d, 0xef, 0xc3, 0xf6, 0x3b, 0xef, 0xc3, 0x2f, 0xe5, 0xe0, 0x3c,
  0xea, 0xfa, 0xff, 0xff, 0x04, 0x00, 0x00, 0x00, 0xc8, 0x00, 0x00, 0x00,
  0x6f, 0x0e, 0x00, 0x00, 0x11, 0x1f, 0x00, 0x00, 0x51, 0x08, 0x00, 0x00,
  0x00, 0x1e, 0x00, 0x00, 0xcd, 0xfd, 0xff, 0xff, 0xca, 0x1d, 0x00, 0x00,
  0xcd, 0x15, 0x00, 0x00, 0xdd, 0x13, 0x00, 0x00, 0x51, 0x1b, 0x00, 0x00,
  0xc0, 0x16, 0x00, 0x00, 0x8d, 0x0b, 0x00, 0x00, 0x3c, 0xfe, 0xff, 0xff,
  0x75, 0xfa, 0xff, 0xff, 0xac, 0x14, 0x00, 0x00, 0x5a, 0x03, 0x00, 0x00,
  0x66, 0x1e, 0x00, 0x00, 0xaf, 0xfa, 0xff, 0xff, 0x35, 0xf9, 0xff, 0xff,
  0x2b, 0x06, 0x00, 0x00, 0x21, 0x08, 0x00, 0x00, 0xba, 0x10, 0x00, 0x00,
  0x2e, 0xf7, 0xff, 0xff, 0xc4, 0x07, 0x00, 0x00, 0xb0, 0x22, 0x00, 0x00,
  0x43, 0xfa, 0xff, 0xff, 0x3a, 0x0e, 0x00, 0x00, 0x2a, 0x14, 0x00, 0x00,
  0x28, 0x16, 0x00, 0x00, 0x29, 0x04, 0x00, 0x00, 0xe7, 0x07, 0x00, 0x00,
  0xec, 0x07, 0x00, 0x00, 0x5b, 0x13, 0x00, 0x00, 0x6d, 0x13, 0x00, 0x00,
  0xbb, 0x0b, 0x00, 0x00, 0x93, 0x16, 0x00, 0x00, 0x6e, 0x0e, 0x00, 0x00,
  0xe3, 0x24, 0x00, 0x00, 0x4f, 0x02, 0x00, 0x00, 0xff, 0x08, 0x00, 0x00,
  0x59, 0xf9, 0xff, 0xff, 0x42, 0x23, 0x00, 0x00, 0x1b, 0xfe, 0xff, 0xff,
  0xc2, 0x09, 0x00, 0x00, 0xa6, 0xf8, 0xff, 0xff, 0x52, 0x1f, 0x00, 0x00,
  0xa7, 0x12, 0x00, 0x00, 0x51, 0x14, 0x00, 0x00, 0x17, 0xf8, 0xff, 0xff,
  0xd8, 0x09, 0x00, 0x00, 0x04, 0x14, 0x00, 0x00, 0xbe, 0xfb, 0xff, 0xff,
  0x04, 0x00, 0x00, 0x00, 0xee, 0x02, 0x00, 0x00, 0xeb, 0x12, 0xda, 0x24,
  0xe3, 0x34, 0xcf, 0xc0, 0xd3, 0xc8, 0xe1, 0xf0, 0x07, 0xf6, 0xf5, 0x26,
  0x1f, 0xf9, 0x10, 0x40, 0x4d, 0xea, 0xe0, 0xc2, 0x04, 0x03, 0x11, 0xd0,
  0x49, 0x03, 0x15, 0x27, 0x31, 0xab, 0x30, 0x29, 0x11, 0x15, 0x1b, 0x1f,
  0x2c, 0xe5, 0x34, 0xf7, 0x42, 0x3b, 0x14, 0xdb, 0x38, 0xf5, 0xf2, 0x09,
  0xbc, 0x27, 0xfe, 0x41, 0xde, 0xe0, 0xda, 0xc6, 0xdf, 0x0b, 0xba, 0xf5,
  0xd2, 0x00, 0x26, 0xde, 0x05, 0x34, 0x38, 0xff, 0xea, 0xe7, 0x26, 0x33,
  0xc0, 0xec, 0x3a, 0x4f, 0x2b, 0xe8, 0x30, 0xb8, 0x15, 0x64, 0x2e, 0x35,
  0xf3, 0xce, 0x1c, 0x10, 0x10, 0x1e, 0x11, 0x1f, 0xfd, 0xd0, 0x3d, 0xc3,
  0xe3, 0x19, 0xcd, 0xe9, 0xe3, 0x1f, 0xd1, 0x33, 0x21, 0x1d, 0x32, 0x33,
  0x01, 0x07, 0x31, 0x3c, 0x04, 0xc4, 0xe7, 0xff, 0x2c, 0x1b, 0x04, 0x07,
  0x09, 0xd5, 0xe3, 0xe0, 0x09, 0xe5, 0x08, 0x0a, 0x06, 0xe7, 0xb9, 0x2e,
  0xce, 0xee, 0xf5, 0x03, 0xe2, 0x2f, 0x3e, 0x20, 0xc4, 0xee, 0xee, 0xc0,
  0x33, 0xfc, 0xd1, 0x35, 0x26, 0xf3, 0xf1, 0x40, 0x0d, 0x27, 0xe3, 0xed,
  0x13, 0x08, 0xce, 0xc2, 0x7f, 0xdf, 0x0b, 0xe8, 0xfd, 0x41, 0x30, 0x1f,
  0x5f, 0xeb, 0xfd, 0xfb, 0x19, 0xdc, 0xe8, 0xf3, 0xde, 0xfe, 0x51, 0xe3,
  0xd9, 0x15, 0xcc, 0xc8, 0xf6, 0xfd, 0x08, 0x14, 0x09, 0xe8, 0xf4, 0xb2,
  0xee, 0x2c, 0xe5, 0xc4, 0x26, 0x0b, 0x26, 0x0e, 0xdc, 0xf6, 0x37, 0x1d,
  0x2e, 0x1e, 0x27, 0xb1, 0xf0, 0x0d, 0xdd, 0x31, 0xf0, 0x49, 0x4e, 0xca,
  0xd4, 0x0a, 0xca, 0x78, 0xef, 0xcf, 0x56, 0x53, 0x01, 0xcd, 0xe5, 0x10,
  0xf1, 0x41, 0x47, 0x13, 0x2a, 0x09, 0x3b, 0xc2, 0x1f, 0xca, 0xc2, 0xe8,
  0x1f, 0xf7, 0x0a, 0xde, 0x0f, 0x29, 0x06, 0xdd, 0x3e, 0x3e, 0x04, 0xc2,
  0x47, 0x02, 0x6f, 0x6d, 0xf3, 0xd5, 0xe7, 0x2c, 0x1e, 0xd2, 0x13, 0xf5,
  0x13, 0xdf, 0xcd, 0xe7, 0x21, 0x24, 0x0b, 0x26, 0xe7, 0xf3, 0xdd, 0x1d,
  0x03, 0x09, 0x08, 0x34, 0xf1, 0xbe, 0x60, 0x09, 0xff, 0x01, 0x63, 0xe5,
  0xff, 0xe2, 0x46, 0x45, 0x57, 0xe1, 0xe0, 0x52, 0x1f, 0x59, 0x0c, 0xe5,
  0xba, 0x4b, 0xf9, 0x49, 0xe9, 0x22, 0x15, 0x27, 0x1a, 0x06, 0x38, 0x67,
  0xee, 0xd4, 0x0c, 0x2e, 0xf2, 0x16, 0xe5, 0x60, 0xcd, 0xdc, 0x43, 0x48,
  0x00, 0xae, 0xc0, 0x25, 0x0a, 0xf0, 0xfc, 0x2f, 0xd4, 0xd7, 0xea, 0xed,
  0xd0, 0x10, 0xe7, 0xdd, 0xf7, 0xf4, 0xf9, 0xfd, 0xf9, 0xd3, 0x56, 0x5b,
  0xf8, 0xc2, 0xee, 0x4b, 0x18, 0x10, 0xcb, 0xbc, 0x46, 0xf3, 0xe1, 0xdf,
  0x5c, 0x69, 0xeb, 0xf2, 0xf1, 0x47, 0x2b, 0x02, 0x00, 0x25, 0xe8, 0xfa,
  0x27, 0x2a, 0x03, 0x36, 0xb4, 0x4d, 0x25, 0xcf, 0x26, 0xfd, 0x08, 0xe8,
  0x06, 0xc5, 0xf8, 0x41, 0xc1, 0x12, 0xf4, 0xbe, 0xff, 0x17, 0xe8, 0xef,
  0x2e, 0x26, 0x1c, 0xe6, 0x47, 0xf1, 0x02, 0xe6, 0x35, 0x2a, 0xcb, 0x0d,
  0x08, 0xe5, 0x06, 0x49, 0x22, 0xd9, 0x04, 0xfb, 0x19, 0x38, 0xfe, 0xd1,
  0xce, 0xc8, 0x0d, 0xf7, 0xde, 0x1d, 0xc0, 0xe8, 0xd6, 0xf9, 0x13, 0x1d,
  0x03, 0xb8, 0xf7, 0xe0, 0x01, 0x1d, 0xfd, 0xfe, 0xf3, 0x2a, 0x18, 0x06,
  0xec, 0xfe, 0xd7, 0x13, 0x02, 0x18, 0x0f, 0xc4, 0xf1, 0x20, 0x19, 0x18,
  0xf4, 0x21, 0x0e, 0xf9, 0xf2, 0x26, 0x48, 0xfd, 0xd4, 0xd7, 0xd5, 0xd2,
  0xba, 0xfb, 0x01, 0x03, 0x0c, 0xcb, 0xd1, 0x04, 0xd2, 0xdb, 0x19, 0xdf,
  0xe3, 0x16, 0x3c, 0x10, 0x46, 0xff, 0xdb, 0xef, 0xe8, 0x03, 0xf2, 0xe8,
  0xe1, 0xbf, 0x0a, 0x08, 0x00, 0x1e, 0x11, 0xc7, 0xea, 0xe7, 0x09, 0x4b,
  0x36, 0x15, 0xd2, 0x08, 0x08, 0xc9, 0x05, 0xea, 0xe6, 0x02, 0x06, 0xf6,
  0xfc, 0x01, 0x1d, 0xf9, 0x1b, 0xf5, 0x35, 0x33, 0x22, 0xd9, 0xe9, 0x1d,
  0xde, 0xc3, 0x22, 0xdc, 0xfb, 0x0d, 0x24, 0xdf, 0xff, 0x14, 0xe3, 0xf0,
  0xf5, 0x1b, 0x08, 0xf6, 0x09, 0xdf, 0x5c, 0x1e, 0xc7, 0x3c, 0xca, 0x12,
  0x21, 0x05, 0x3e, 0x0d, 0xd0, 0x32, 0xe9, 0x26, 0xae, 0xec, 0x2a, 0x11,
  0xee, 0x0c, 0x18, 0xfe, 0xff, 0xff, 0x14, 0x2e, 0xc9, 0x1b, 0x0b, 0x56,
  0x32, 0xe9, 0x3a, 0xe1, 0x55, 0x03, 0x37, 0x2e, 0x17, 0x14, 0xff, 0xdf,
  0xfe, 0x04, 0x46, 0x43, 0x0b, 0x00, 0x0e, 0xde, 0xe1, 0xfe, 0xcf, 0xf7,
  0x0e, 0xe3, 0x28, 0x0a, 0x16, 0x0e, 0xe8, 0xd8, 0xf3, 0x17, 0x34, 0xee,
  0x4a, 0x01, 0x02, 0xd6, 0xd1, 0xf3, 0xc6, 0xe9, 0xfb, 0xea, 0x0e, 0xf1,
  0xe1, 0xdf, 0xda, 0xe5, 0xfa, 0xd5, 0xf6, 0xfc, 0x15, 0x33, 0xd2, 0x1b,
  0xf8, 0x0d, 0xff, 0x1a, 0x2f, 0x02, 0xef, 0x15, 0xe1, 0x30, 0xd4, 0x04,
  0xf5, 0xe7, 0xc8, 0xf6, 0x08, 0xf4, 0x0e, 0xf6, 0x1c, 0xfd, 0x02, 0xb9,
  0xee, 0xca, 0x1c, 0xfc, 0x2c, 0x24, 0xf8, 0xe7, 0x24, 0x03, 0xe7, 0xba,
  0xd8, 0xd7, 0x07, 0x02, 0xe0, 0xd7, 0x1e, 0xca, 0xd5, 0xf6, 0xea, 0xe9,
  0x01, 0x20, 0x07, 0x16, 0x06, 0x15, 0xe9, 0xf1, 0x3e, 0x12, 0xfb, 0x14,
  0xfb, 0x02, 0xdd, 0x25, 0xfb, 0x36, 0xe2, 0xfc, 0xe5, 0xf2, 0xfc, 0x19,
  0x09, 0x06, 0x50, 0x1d, 0xd6, 0xee, 0xc0, 0x3e, 0x2d, 0x0c, 0x2e, 0xd3,
  0x13, 0x25, 0x01, 0xea, 0x08, 0x4e, 0x20, 0xfb, 0x5c, 0x13, 0xbd, 0x5d,
  0xf4, 0x10, 0xcc, 0x00, 0x4b, 0xeb, 0x1c, 0x13, 0x4d, 0x03, 0x0a, 0xe6,
  0x04, 0xf4, 0x00, 0x00, 0xba, 0xfe, 0xff, 0xff, 0x04, 0x00, 0x00, 0x00,
  0x3c, 0x00, 0x00, 0x00, 0xb8, 0xec, 0x00, 0xcb, 0x37, 0xdf, 0x15, 0x2b,
  0x08, 0xf0, 0x2d, 0xc6, 0xe7, 0x3b, 0xaa, 0x4a, 0x7c, 0xef, 0xc1, 0xbb,
  0xe5, 0x96, 0xd0, 0xe4, 0xf4, 0x0d, 0x0d, 0xe9, 0xdc, 0x49, 0x04, 0xe8,
  0x20, 0x63, 0xc1, 0xe2, 0xe4, 0x1c, 0x0d, 0xcd, 0xfb, 0x81, 0x2a, 0xd9,
  0x33, 0xd2, 0xad, 0xdc, 0x1f, 0x23, 0x7c, 0x8d, 0x95, 0xf6, 0xb4, 0x20,
  0xf0, 0x0a, 0x09, 0xf0, 0x02, 0xff, 0xff, 0xff, 0x04, 0x00, 0x00, 0x00,
  0x3c, 0x00, 0x00, 0x00, 0xbe, 0x03, 0x00, 0x00, 0x4d, 0x07, 0x00, 0x00,
  0x10, 0x0a, 0x00, 0x00, 0x03, 0xfc, 0xff, 0xff, 0xd2, 0x11, 0x00, 0x00,
  0xb9, 0x0d, 0x00, 0x00, 0x65, 0x0a, 0x00, 0x00, 0x24, 0x10, 0x00, 0x00,
  0xcb, 0xff, 0xff, 0xff, 0xa1, 0x00, 0x00, 0x00, 0xc3, 0x07, 0x00, 0x00,
  0xa6, 0x0d, 0x00, 0x00, 0x8e, 0x04, 0x00, 0x00, 0x80, 0xfe, 0xff, 0xff,
  0x66, 0x0b, 0x00, 0x00, 0x4a, 0xff, 0xff, 0xff, 0x04, 0x00, 0x00, 0x00,
  0x10, 0x00, 0x00, 0x00, 0x04, 0xff, 0xff, 0xff, 0xcf, 0xfd, 0xff, 0xff,
  0xe5, 0xfb, 0xff, 0xff, 0x96, 0x00, 0x00, 0x00, 0x34, 0xff, 0xff, 0xff,
  0x0f, 0x00, 0x00, 0x00, 0x54, 0x4f, 0x43, 0x4f, 0x20, 0x43, 0x6f, 0x6e,
  0x76, 0x65, 0x72, 0x74, 0x65, 0x64, 0x2e, 0x00, 0x01, 0x00, 0x00, 0x00,
  0x04, 0x00, 0x00, 0x00, 0x00, 0xf9, 0xff, 0xff, 0x94, 0x01, 0x00, 0x00,
  0x88, 0x01, 0x00, 0x00, 0x7c, 0x01, 0x00, 0x00, 0x04, 0x00, 0x00, 0x00,
  0x06, 0x00, 0x00, 0x00, 0x50, 0x01, 0x00, 0x00, 0x04, 0x01, 0x00, 0x00,
  0xbc, 0x00, 0x00, 0x00, 0x74, 0x00, 0x00, 0x00, 0x38, 0x00, 0x00, 0x00,
  0x04, 0x00, 0x00, 0x00, 0xd2, 0xfe, 0xff, 0xff, 0x03, 0x00, 0x00, 0x00,
  0x10, 0x00, 0x00, 0x00, 0x04, 0x00, 0x00, 0x00, 0x01, 0x00, 0x00, 0x00,
  0x0c, 0x00, 0x00, 0x00, 0x01, 0x00, 0x00, 0x00, 0x00, 0x00, 0x00, 0x00,
  0x00, 0x00, 0x0e, 0x00, 0x1a, 0x00, 0x08, 0x00, 0x0c, 0x00, 0x10, 0x00,
  0x07, 0x00, 0x14, 0x00, 0x0e, 0x00, 0x00, 0x00, 0x00, 0x00, 0x00, 0x09,
  0x01, 0x00, 0x00, 0x00, 0x24, 0x00, 0x00, 0x00, 0x18, 0x00, 0x00, 0x00,
  0x0c, 0x00, 0x00, 0x00, 0x00, 0x00, 0x06, 0x00, 0x08, 0x00, 0x04, 0x00,
  0x06, 0x00, 0x00, 0x00, 0x00, 0x00, 0x80, 0x3f, 0x01, 0x00, 0x00, 0x00,
  0x00, 0x00, 0x00, 0x00, 0x01, 0x00, 0x00, 0x00, 0x08, 0x00, 0x00, 0x00,
  0xca, 0xff, 0xff, 0xff, 0x00, 0x00, 0x00, 0x08, 0x1c, 0x00, 0x00, 0x00,
  0x10, 0x00, 0x00, 0x00, 0x08, 0x00, 0x00, 0x00, 0x04, 0x00, 0x04, 0x00,
  0x04, 0x00, 0x00, 0x00, 0x01, 0x00, 0x00, 0x00, 0x08, 0x00, 0x00, 0x00,
  0x03, 0x00, 0x00, 0x00, 0x07, 0x00, 0x00, 0x00, 0x09, 0x00, 0x00, 0x00,
  0x0a, 0x00, 0x00, 0x00, 0x00, 0x00, 0x0e, 0x00, 0x14, 0x00, 0x00, 0x00,
  0x08, 0x00, 0x0c, 0x00, 0x07, 0x00, 0x10, 0x00, 0x0e, 0x00, 0x00, 0x00,
  0x00, 0x00, 0x00, 0x08, 0x1c, 0x00, 0x00, 0x00, 0x10, 0x00, 0x00, 0x00,
  0x04, 0x00, 0x00, 0x00, 0xba, 0xff, 0xff, 0xff, 0x00, 0x00, 0x00, 0x01,
  0x01, 0x00, 0x00, 0x00, 0x07, 0x00, 0x00, 0x00, 0x03, 0x00, 0x00, 0x00,
  0x04, 0x00, 0x00, 0x00, 0x05, 0x00, 0x00, 0x00, 0x06, 0x00, 0x00, 0x00,
  0x00, 0x00, 0x0e, 0x00, 0x16, 0x00, 0x00, 0x00, 0x08, 0x00, 0x0c, 0x00,
  0x07, 0x00, 0x10, 0x00, 0x0e, 0x00, 0x00, 0x00, 0x00, 0x00, 0x00, 0x08,
  0x24, 0x00, 0x00, 0x00, 0x18, 0x00, 0x00, 0x00, 0x0c, 0x00, 0x00, 0x00,
  0x00, 0x00, 0x06, 0x00, 0x08, 0x00, 0x07, 0x00, 0x06, 0x00, 0x00, 0x00,
  0x00, 0x00, 0x00, 0x01, 0x01, 0x00, 0x00, 0x00, 0x04, 0x00, 0x00, 0x00,
  0x03, 0x00, 0x00, 0x00, 0x01, 0x00, 0x00, 0x00, 0x02, 0x00, 0x00, 0x00,
  0x03, 0x00, 0x00, 0x00, 0x00, 0x00, 0x0a, 0x00, 0x10, 0x00, 0x04, 0x00,
  0x08, 0x00, 0x0c, 0x00, 0x0a, 0x00, 0x00, 0x00, 0x02, 0x00, 0x00, 0x00,
  0x10, 0x00, 0x00, 0x00, 0x04, 0x00, 0x00, 0x00, 0x01, 0x00, 0x00, 0x00,
  0x01, 0x00, 0x00, 0x00, 0x01, 0x00, 0x00, 0x00, 0x0b, 0x00, 0x00, 0x00,
  0x01, 0x00, 0x00, 0x00, 0x0c, 0x00, 0x00, 0x00, 0x01, 0x00, 0x00, 0x00,
  0x0b, 0x00, 0x00, 0x00, 0x0d, 0x00, 0x00, 0x00, 0xe4, 0x05, 0x00, 0x00,
  0x48, 0x05, 0x00, 0x00, 0xa8, 0x04, 0x00, 0x00, 0x34, 0x04, 0x00, 0x00,
  0xb0, 0x03, 0x00, 0x00, 0x0c, 0x03, 0x00, 0x00, 0x98, 0x02, 0x00, 0x00,
  0x14, 0x02, 0x00, 0x00, 0x88, 0x01, 0x00, 0x00, 0xe4, 0x00, 0x00, 0x00,
  0x70, 0x00, 0x00, 0x00, 0x3c, 0x00, 0x00, 0x00, 0x04, 0x00, 0x00, 0x00,
  0xd8, 0xff, 0xff, 0xff, 0x18, 0x00, 0x00, 0x00, 0x04, 0x00, 0x00, 0x00,
  0x08, 0x00, 0x00, 0x00, 0x49, 0x64, 0x65, 0x6e, 0x74, 0x69, 0x74, 0x79,
  0x00, 0x00, 0x00, 0x00, 0x02, 0x00, 0x00, 0x00, 0x01, 0x00, 0x00, 0x00,
  0x04, 0x00, 0x00, 0x00, 0x0c, 0x00, 0x0c, 0x00, 0x04, 0x00, 0x00, 0x00,
  0x00, 0x00, 0x08, 0x00, 0x0c, 0x00, 0x00, 0x00, 0x20, 0x00, 0x00, 0x00,
  0x04, 0x00, 0x00, 0x00, 0x12, 0x00, 0x00, 0x00, 0x64, 0x65, 0x6e, 0x73,
  0x65, 0x5f, 0x44, 0x65, 0x6e, 0x73, 0x65, 0x34, 0x5f, 0x69, 0x6e, 0x70,
  0x75, 0x74, 0x00, 0x00, 0x02, 0x00, 0x00, 0x00, 0x01, 0x00, 0x00, 0x00,
  0x78, 0x00, 0x00, 0x00, 0xc2, 0xfa, 0xff, 0xff, 0x00, 0x00, 0x00, 0x02,
  0x60, 0x00, 0x00, 0x00, 0x01, 0x00, 0x00, 0x00, 0x2c, 0x00, 0x00, 0x00,
  0x04, 0x00, 0x00, 0x00, 0xb4, 0xfa, 0xff, 0xff, 0x18, 0x00, 0x00, 0x00,
  0x04, 0x00, 0x00, 0x00, 0x01, 0x00, 0x00, 0x00, 0x00, 0x00, 0x00, 0x00,
  0x00, 0x00, 0x00, 0x00, 0x00, 0x00, 0x00, 0x00, 0x01, 0x00, 0x00, 0x00,
  0xf1, 0x60, 0x3f, 0x39, 0x25, 0x00, 0x00, 0x00, 0x73, 0x65, 0x71, 0x75,
  0x65, 0x6e, 0x74, 0x69, 0x61, 0x6c, 0x5f, 0x32, 0x2f, 0x64, 0x65, 0x6e,
  0x73, 0x65, 0x5f, 0x44, 0x65, 0x6e, 0x73, 0x65, 0x36, 0x2f, 0x4d, 0x61,
  0x74, 0x4d, 0x75, 0x6c, 0x5f, 0x62, 0x69, 0x61, 0x73, 0x00, 0x00, 0x00,
  0x01, 0x00, 0x00, 0x00, 0x04, 0x00, 0x00, 0x00, 0x32, 0xfb, 0xff, 0xff,
  0x00, 0x00, 0x00, 0x09, 0x8c, 0x00, 0x00, 0x00, 0x03, 0x00, 0x00, 0x00,
  0x44, 0x00, 0x00, 0x00, 0x04, 0x00, 0x00, 0x00, 0xbc, 0xfb, 0xff, 0xff,
  0x30, 0x00, 0x00, 0x00, 0x24, 0x00, 0x00, 0x00, 0x18, 0x00, 0x00, 0x00,
  0x04, 0x00, 0x00, 0x00, 0x01, 0x00, 0x00, 0x00, 0x00, 0x00, 0x00, 0x00,
  0x00, 0x00, 0x00, 0x00, 0x00, 0x00, 0x00, 0x00, 0x01, 0x00, 0x00, 0x00,
  0x0f, 0x3e, 0x0c, 0x3c, 0x01, 0x00, 0x00, 0x00, 0x28, 0x16, 0x88, 0x3f,
  0x01, 0x00, 0x00, 0x00, 0x93, 0x25, 0x8b, 0xbf, 0x39, 0x00, 0x00, 0x00,
  0x73, 0x65, 0x71, 0x75, 0x65, 0x6e, 0x74, 0x69, 0x61, 0x6c, 0x5f, 0x32,
  0x2f, 0x64, 0x65, 0x6e, 0x73, 0x65, 0x5f, 0x44, 0x65, 0x6e, 0x73, 0x65,
  0x36, 0x2f, 0x4d, 0x61, 0x74, 0x4d, 0x75, 0x6c, 0x2f, 0x52, 0x65, 0x61,
  0x64, 0x56, 0x61, 0x72, 0x69, 0x61, 0x62, 0x6c, 0x65, 0x4f, 0x70, 0x2f,
  0x74, 0x72, 0x61, 0x6e, 0x73, 0x70, 0x6f, 0x73, 0x65, 0x00, 0x00, 0x00,
  0x02, 0x00, 0x00, 0x00, 0x04, 0x00, 0x00, 0x00, 0x0f, 0x00, 0x00, 0x00,
  0xd2, 0xfb, 0xff, 0xff, 0x00, 0x00, 0x00, 0x09, 0x74, 0x00, 0x00, 0x00,
  0x0b, 0x00, 0x00, 0x00, 0x44, 0x00, 0x00, 0x00, 0x04, 0x00, 0x00, 0x00,
  0x5c, 0xfc, 0xff, 0xff, 0x30, 0x00, 0x00, 0x00, 0x24, 0x00, 0x00, 0x00,
  0x18, 0x00, 0x00, 0x00, 0x04, 0x00, 0x00, 0x00, 0x01, 0x00, 0x00, 0x00,
  0x0c, 0x00, 0x00, 0x00, 0x00, 0x00, 0x00, 0x00, 0x00, 0x00, 0x00, 0x00,
  0x01, 0x00, 0x00, 0x00, 0xae, 0xe7, 0x89, 0x3d, 0x01, 0x00, 0x00, 0x00,
  0x1e, 0xbb, 0xf8, 0x40, 0x01, 0x00, 0x00, 0x00, 0xfe, 0x5d, 0x16, 0xc1,
  0x21, 0x00, 0x00, 0x00, 0x73, 0x65, 0x71, 0x75, 0x65, 0x6e, 0x74, 0x69,
  0x61, 0x6c, 0x5f, 0x32, 0x2f, 0x64, 0x65, 0x6e, 0x73, 0x65, 0x5f, 0x44,
  0x65, 0x6e, 0x73, 0x65, 0x36, 0x2f, 0x42, 0x69, 0x61, 0x73, 0x41, 0x64,
  0x64, 0x00, 0x00, 0x00, 0x02, 0x00, 0x00, 0x00, 0x01, 0x00, 0x00, 0x00,
  0x04, 0x00, 0x00, 0x00, 0x5a, 0xfc, 0xff, 0xff, 0x00, 0x00, 0x00, 0x09,
  0x6c, 0x00, 0x00, 0x00, 0x09, 0x00, 0x00, 0x00, 0x40, 0x00, 0x00, 0x00,
  0x04, 0x00, 0x00, 0x00, 0xe4, 0xfc, 0xff, 0xff, 0x2c, 0x00, 0x00, 0x00,
  0x20, 0x00, 0x00, 0x00, 0x14, 0x00, 0x00, 0x00, 0x04, 0x00, 0x00, 0x00,
  0x01, 0x00, 0x00, 0x00, 0x80, 0xff, 0xff, 0xff, 0xff, 0xff, 0xff, 0xff,
  0x01, 0x00, 0x00, 0x00, 0x1e, 0xac, 0xae, 0x3c, 0x01, 0x00, 0x00, 0x00,
  0x72, 0xfd, 0xad, 0x40, 0x01, 0x00, 0x00, 0x00, 0x00, 0x00, 0x00, 0x00,
  0x1e, 0x00, 0x00, 0x00, 0x73, 0x65, 0x71, 0x75, 0x65, 0x6e, 0x74, 0x69,
  0x61, 0x6c, 0x5f, 0x32, 0x2f, 0x64, 0x65, 0x6e, 0x73, 0x65, 0x5f, 0x44,
  0x65, 0x6e, 0x73, 0x65, 0x35, 0x2f, 0x52, 0x65, 0x6c, 0x75, 0x00, 0x00,
  0x02, 0x00, 0x00, 0x00, 0x01, 0x00, 0x00, 0x00, 0x0f, 0x00, 0x00, 0x00,
  0xda, 0xfc, 0xff, 0xff, 0x00, 0x00, 0x00, 0x02, 0x60, 0x00, 0x00, 0x00,
  0x02, 0x00, 0x00, 0x00, 0x2c, 0x00, 0x00, 0x00, 0x04, 0x00, 0x00, 0x00,
  0xcc, 0xfc, 0xff, 0xff, 0x18, 0x00, 0x00, 0x00, 0x04, 0x00, 0x00, 0x00,
  0x01, 0x00, 0x00, 0x00, 0x00, 0x00, 0x00, 0x00, 0x00, 0x00, 0x00, 0x00,
  0x00, 0x00, 0x00, 0x00, 0x01, 0x00, 0x00, 0x00, 0xb8, 0x42, 0x3c, 0x38,
  0x25, 0x00, 0x00, 0x00, 0x73, 0x65, 0x71, 0x75, 0x65, 0x6e, 0x74, 0x69,
  0x61, 0x6c, 0x5f, 0x32, 0x2f, 0x64, 0x65, 0x6e, 0x73, 0x65, 0x5f, 0x44,
  0x65, 0x6e, 0x73, 0x65, 0x35, 0x2f, 0x4d, 0x61, 0x74, 0x4d, 0x75, 0x6c,
  0x5f, 0x62, 0x69, 0x61, 0x73, 0x00, 0x00, 0x00, 0x01, 0x00, 0x00, 0x00,
  0x0f, 0x00, 0x00, 0x00, 0x4a, 0xfd, 0xff, 0xff, 0x00, 0x00, 0x00, 0x09,
  0x8c, 0x00, 0x00, 0x00, 0x04, 0x00, 0x00, 0x00, 0x44, 0x00, 0x00, 0x00,
  0x04, 0x00, 0x00, 0x00, 0xd4, 0xfd, 0xff, 0xff, 0x30, 0x00, 0x00, 0x00,
  0x24, 0x00, 0x00, 0x00, 0x18, 0x00, 0x00, 0x00, 0x04, 0x00, 0x00, 0x00,
  0x01, 0x00, 0x00, 0x00, 0x00, 0x00, 0x00, 0x00, 0x00, 0x00, 0x00, 0x00,
  0x00, 0x00, 0x00, 0x00, 0x01, 0x00, 0x00, 0x00, 0xd6, 0x55, 0x9d, 0x3b,
  0x01, 0x00, 0x00, 0x00, 0x2a, 0x1b, 0x1c, 0x3f, 0x01, 0x00, 0x00, 0x00,
  0x74, 0x59, 0xd1, 0xbe, 0x39, 0x00, 0x00, 0x00, 0x73, 0x65, 0x71, 0x75,
  0x65, 0x6e, 0x74, 0x69, 0x61, 0x6c, 0x5f, 0x32, 0x2f, 0x64, 0x65, 0x6e,
  0x73, 0x65, 0x5f, 0x44, 0x65, 0x6e, 0x73, 0x65, 0x35, 0x2f, 0x4d, 0x61,
  0x74, 0x4d, 0x75, 0x6c, 0x2f, 0x52, 0x65, 0x61, 0x64, 0x56, 0x61, 0x72,
  0x69, 0x61, 0x62, 0x6c, 0x65, 0x4f, 0x70, 0x2f, 0x74, 0x72, 0x61, 0x6e,
  0x73, 0x70, 0x6f, 0x73, 0x65, 0x00, 0x00, 0x00, 0x02, 0x00, 0x00, 0x00,
  0x0f, 0x00, 0x00, 0x00, 0x32, 0x00, 0x00, 0x00, 0xea, 0xfd, 0xff, 0xff,
  0x00, 0x00, 0x00, 0x09, 0x6c, 0x00, 0x00, 0x00, 0x08, 0x00, 0x00, 0x00,
  0x40, 0x00, 0x00, 0x00, 0x04, 0x00, 0x00, 0x00, 0x74, 0xfe, 0xff, 0xff,
  0x2c, 0x00, 0x00, 0x00, 0x20, 0x00, 0x00, 0x00, 0x14, 0x00, 0x00, 0x00,
  0x04, 0x00, 0x00, 0x00, 0x01, 0x00, 0x00, 0x00, 0x80, 0xff, 0xff, 0xff,
  0xff, 0xff, 0xff, 0xff, 0x01, 0x00, 0x00, 0x00, 0xc6, 0x28, 0x19, 0x3c,
  0x01, 0x00, 0x00, 0x00, 0x9d, 0x8f, 0x18, 0x40, 0x01, 0x00, 0x00, 0x00,
  0x00, 0x00, 0x00, 0x00, 0x1e, 0x00, 0x00, 0x00, 0x73, 0x65, 0x71, 0x75,
  0x65, 0x6e, 0x74, 0x69, 0x61, 0x6c, 0x5f, 0x32, 0x2f, 0x64, 0x65, 0x6e,
  0x73, 0x65, 0x5f, 0x44, 0x65, 0x6e, 0x73, 0x65, 0x34, 0x2f, 0x52, 0x65,
  0x6c, 0x75, 0x00, 0x00, 0x02, 0x00, 0x00, 0x00, 0x01, 0x00, 0x00, 0x00,
  0x32, 0x00, 0x00, 0x00, 0x6a, 0xfe, 0xff, 0xff, 0x00, 0x00, 0x00, 0x02,
  0x60, 0x00, 0x00, 0x00, 0x05, 0x00, 0x00, 0x00, 0x2c, 0x00, 0x00, 0x00,
  0x04, 0x00, 0x00, 0x00, 0x5c, 0xfe, 0xff, 0xff, 0x18, 0x00, 0x00, 0x00,
  0x04, 0x00, 0x00, 0x00, 0x01, 0x00, 0x00, 0x00, 0x00, 0x00, 0x00, 0x00,
  0x00, 0x00, 0x00, 0x00, 0x00, 0x00, 0x00, 0x00, 0x01, 0x00, 0x00, 0x00,
  0x47, 0x76, 0xc7, 0x37, 0x25, 0x00, 0x00, 0x00, 0x73, 0x65, 0x71, 0x75,
  0x65, 0x6e, 0x74, 0x69, 0x61, 0x6c, 0x5f, 0x32, 0x2f, 0x64, 0x65, 0x6e,
  0x73, 0x65, 0x5f, 0x44, 0x65, 0x6e, 0x73, 0x65, 0x34, 0x2f, 0x4d, 0x61,
  0x74, 0x4d, 0x75, 0x6c, 0x5f, 0x62, 0x69, 0x61, 0x73, 0x00, 0x00, 0x00,
  0x01, 0x00, 0x00, 0x00, 0x32, 0x00, 0x00, 0x00, 0xda, 0xfe, 0xff, 0xff,
  0x00, 0x00, 0x00, 0x09, 0x88, 0x00, 0x00, 0x00, 0x06, 0x00, 0x00, 0x00,
  0x40, 0x00, 0x00, 0x00, 0x04, 0x00, 0x00, 0x00, 0x64, 0xff, 0xff, 0xff,
  0x2c, 0x00, 0x00, 0x00, 0x20, 0x00, 0x00, 0x00, 0x14, 0x00, 0x00, 0x00,
  0x04, 0x00, 0x00, 0x00, 0x01, 0x00, 0x00, 0x00, 0x00, 0x00, 0x00, 0x00,
  0x00, 0x00, 0x00, 0x00, 0x01, 0x00, 0x00, 0x00, 0x07, 0xb5, 0x46, 0x3b,
  0x01, 0x00, 0x00, 0x00, 0x9d, 0x27, 0xc5, 0x3e, 0x01, 0x00, 0x00, 0x00,
  0xee, 0xc6, 0xaf, 0xbe, 0x39, 0x00, 0x00, 0x00, 0x73, 0x65, 0x71, 0x75,
  0x65, 0x6e, 0x74, 0x69, 0x61, 0x6c, 0x5f, 0x32, 0x2f, 0x64, 0x65, 0x6e,
  0x73, 0x65, 0x5f, 0x44, 0x65, 0x6e, 0x73, 0x65, 0x34, 0x2f, 0x4d, 0x61,
  0x74, 0x4d, 0x75, 0x6c, 0x2f, 0x52, 0x65, 0x61, 0x64, 0x56, 0x61, 0x72,
  0x69, 0x61, 0x62, 0x6c, 0x65, 0x4f, 0x70, 0x2f, 0x74, 0x72, 0x61, 0x6e,
  0x73, 0x70, 0x6f, 0x73, 0x65, 0x00, 0x00, 0x00, 0x02, 0x00, 0x00, 0x00,
  0x32, 0x00, 0x00, 0x00, 0x78, 0x00, 0x00, 0x00, 0x76, 0xff, 0xff, 0xff,
  0x00, 0x00, 0x00, 0x09, 0x74, 0x00, 0x00, 0x00, 0x07, 0x00, 0x00, 0x00,
  0x50, 0x00, 0x00, 0x00, 0x10, 0x00, 0x00, 0x00, 0x0c, 0x00, 0x14, 0x00,
  0x04, 0x00, 0x08, 0x00, 0x0c, 0x00, 0x10, 0x00, 0x0c, 0x00, 0x00, 0x00,
  0x30, 0x00, 0x00, 0x00, 0x24, 0x00, 0x00, 0x00, 0x18, 0x00, 0x00, 0x00,
  0x04, 0x00, 0x00, 0x00, 0x01, 0x00, 0x00, 0x00, 0x00, 0x00, 0x00, 0x00,
  0x00, 0x00, 0x00, 0x00, 0x00, 0x00, 0x00, 0x00, 0x01, 0x00, 0x00, 0x00,
  0x7c, 0x7c, 0x00, 0x3c, 0x01, 0x00, 0x00, 0x00, 0x00, 0xf8, 0x7f, 0x3f,
  0x01, 0x00, 0x00, 0x00, 0x00, 0xf8, 0x7f, 0xbf, 0x17, 0x00, 0x00, 0x00,
  0x64, 0x65, 0x6e, 0x73, 0x65, 0x5f, 0x44, 0x65, 0x6e, 0x73, 0x65, 0x34,
  0x5f, 0x69, 0x6e, 0x70, 0x75, 0x74, 0x5f, 0x69, 0x6e, 0x74, 0x38, 0x00,
  0x02, 0x00, 0x00, 0x00, 0x01, 0x00, 0x00, 0x00, 0x78, 0x00, 0x00, 0x00,
  0x00, 0x00, 0x0e, 0x00, 0x18, 0x00, 0x08, 0x00, 0x07, 0x00, 0x0c, 0x00,
  0x10, 0x00, 0x14, 0x00, 0x0e, 0x00, 0x00, 0x00, 0x00, 0x00, 0x00, 0x09,
  0x54, 0x00, 0x00, 0x00, 0x0a, 0x00, 0x00, 0x00, 0x38, 0x00, 0x00, 0x00,
  0x10, 0x00, 0x00, 0x00, 0x0c, 0x00, 0x0c, 0x00, 0x00, 0x00, 0x00, 0x00,
  0x04, 0x00, 0x08, 0x00, 0x0c, 0x00, 0x00, 0x00, 0x18, 0x00, 0x00, 0x00,
  0x04, 0x00, 0x00, 0x00, 0x01, 0x00, 0x00, 0x00, 0x80, 0xff, 0xff, 0xff,
  0xff, 0xff, 0xff, 0xff, 0x00, 0x00, 0x00, 0x00, 0x01, 0x00, 0x00, 0x00,
  0x00, 0x00, 0x80, 0x3b, 0x0d, 0x00, 0x00, 0x00, 0x49, 0x64, 0x65, 0x6e,
  0x74, 0x69, 0x74, 0x79, 0x5f, 0x69, 0x6e, 0x74, 0x38, 0x00, 0x00, 0x00,
  0x02, 0x00, 0x00, 0x00, 0x01, 0x00, 0x00, 0x00, 0x04, 0x00, 0x00, 0x00,
  0x04, 0x00, 0x00, 0x00, 0x4c, 0x00, 0x00, 0x00, 0x30, 0x00, 0x00, 0x00,
  0x1c, 0x00, 0x00, 0x00, 0x04, 0x00, 0x00, 0x00, 0xe6, 0xff, 0xff, 0xff,
  0x00, 0x00, 0x00, 0x06, 0x02, 0x00, 0x00, 0x00, 0x00, 0x00, 0x06, 0x00,
  0x06, 0x00, 0x05, 0x00, 0x06, 0x00, 0x00, 0x00, 0x00, 0x72, 0x0a, 0x00,
  0x0e, 0x00, 0x07, 0x00, 0x00, 0x00, 0x08, 0x00, 0x0a, 0x00, 0x00, 0x00,
  0x00, 0x00, 0x00, 0x19, 0x02, 0x00, 0x00, 0x00, 0x00, 0x00, 0x0a, 0x00,
  0x0c, 0x00, 0x07, 0x00, 0x00, 0x00, 0x08, 0x00, 0x0a, 0x00, 0x00, 0x00,
  0x00, 0x00, 0x00, 0x09, 0x04, 0x00, 0x00, 0x00

};